#ifndef MODEL_ESP8266_H
#define MODEL_ESP8266_H

extern const unsigned char g_model[] = {
  0x20, 0x00, 0x00, 0x00, 0x54, 0x46, 0x4c, 0x33, 0x00, 0x00, 0x00, 0x00, 
  0x14, 0x00, 0x20, 0x00, 0x1c, 0x00, 0x18, 0x00, 0x14, 0x00, 0x10, 0x00, 
  0x0c, 0x00, 0x00, 0x00, 0x08, 0x00, 0x04, 0x00, 0x14, 0x00, 0x00, 0x00, 
  0x1c, 0x00, 0x00, 0x00, 0x88, 0x00, 0x00, 0x00, 0xe0, 0x00, 0x00, 0x00, 
  0x80, 0x22, 0x00, 0x00, 0x90, 0x22, 0x00, 0x00, 0xc8, 0x33, 0x00, 0x00, 
  0x03, 0x00, 0x00, 0x00, 0x01, 0x00, 0x00, 0x00, 0x04, 0x00, 0x00, 0x00, 
  0x96, 0xda, 0xff, 0xff, 0x0c, 0x00, 0x00, 0x00, 0x1c, 0x00, 0x00, 0x00, 
  0x3c, 0x00, 0x00, 0x00, 0x0f, 0x00, 0x00, 0x00, 0x73, 0x65, 0x72, 0x76, 
  0x69, 0x6e, 0x67, 0x5f, 0x64, 0x65, 0x66, 0x61, 0x75, 0x6c, 0x74, 0x00, 
  0x01, 0x00, 0x00, 0x00, 0x04, 0x00, 0x00, 0x00, 0x94, 0xff, 0xff, 0xff, 
  0x1c, 0x00, 0x00, 0x00, 0x04, 0x00, 0x00, 0x00, 0x08, 0x00, 0x00, 0x00, 
  0x6f, 0x75, 0x74, 0x70, 0x75, 0x74, 0x5f, 0x30, 0x00, 0x00, 0x00, 0x00, 
  0x01, 0x00, 0x00, 0x00, 0x04, 0x00, 0x00, 0x00, 0x3e, 0xdd, 0xff, 0xff, 
  0x04, 0x00, 0x00, 0x00, 0x0b, 0x00, 0x00, 0x00, 0x69, 0x6e, 0x70, 0x75, 
  0x74, 0x5f, 0x6c, 0x61, 0x79, 0x65, 0x72, 0x00, 0x02, 0x00, 0x00, 0x00, 
  0x34, 0x00, 0x00, 0x00, 0x04, 0x00, 0x00, 0x00, 0xdc, 0xff, 0xff, 0xff, 
  0x1f, 0x00, 0x00, 0x00, 0x04, 0x00, 0x00, 0x00, 0x13, 0x00, 0x00, 0x00, 
  0x43, 0x4f, 0x4e, 0x56, 0x45, 0x52, 0x53, 0x49, 0x4f, 0x4e, 0x5f, 0x4d, 
  0x45, 0x54, 0x41, 0x44, 0x41, 0x54, 0x41, 0x00, 0x08, 0x00, 0x0c, 0x00, 
  0x08, 0x00, 0x04, 0x00, 0x08, 0x00, 0x00, 0x00, 0x1e, 0x00, 0x00, 0x00, 
  0x04, 0x00, 0x00, 0x00, 0x13, 0x00, 0x00, 0x00, 0x6d, 0x69, 0x6e, 0x5f, 
  0x72, 0x75, 0x6e, 0x74, 0x69, 0x6d, 0x65, 0x5f, 0x76, 0x65, 0x72, 0x73, 
  0x69, 0x6f, 0x6e, 0x00, 0x20, 0x00, 0x00, 0x00, 0x9c, 0x21, 0x00, 0x00, 
  0x94, 0x21, 0x00, 0x00, 0x80, 0x21, 0x00, 0x00, 0x68, 0x21, 0x00, 0x00, 
  0x54, 0x21, 0x00, 0x00, 0x38, 0x21, 0x00, 0x00, 0xd4, 0x20, 0x00, 0x00, 
  0x9c, 0x20, 0x00, 0x00, 0x64, 0x20, 0x00, 0x00, 0x48, 0x20, 0x00, 0x00, 
  0x2c, 0x20, 0x00, 0x00, 0x4c, 0x18, 0x00, 0x00, 0xac, 0x16, 0x00, 0x00, 
  0xa0, 0x15, 0x00, 0x00, 0x0c, 0x01, 0x00, 0x00, 0x04, 0x01, 0x00, 0x00, 
  0xfc, 0x00, 0x00, 0x00, 0xf4, 0x00, 0x00, 0x00, 0xec, 0x00, 0x00, 0x00, 
  0xe4, 0x00, 0x00, 0x00, 0xdc, 0x00, 0x00, 0x00, 0xd4, 0x00, 0x00, 0x00, 
  0xcc, 0x00, 0x00, 0x00, 0xc4, 0x00, 0x00, 0x00, 0xbc, 0x00, 0x00, 0x00, 
  0xb4, 0x00, 0x00, 0x00, 0xac, 0x00, 0x00, 0x00, 0xa4, 0x00, 0x00, 0x00, 
  0x9c, 0x00, 0x00, 0x00, 0x94, 0x00, 0x00, 0x00, 0x74, 0x00, 0x00, 0x00, 
  0x04, 0x00, 0x00, 0x00, 0x36, 0xde, 0xff, 0xff, 0x04, 0x00, 0x00, 0x00, 
  0x60, 0x00, 0x00, 0x00, 0x0c, 0x00, 0x00, 0x00, 0x08, 0x00, 0x0e, 0x00, 
  0x08, 0x00, 0x04, 0x00, 0x08, 0x00, 0x00, 0x00, 0x10, 0x00, 0x00, 0x00, 
  0x28, 0x00, 0x00, 0x00, 0x00, 0x00, 0x06, 0x00, 0x08, 0x00, 0x04, 0x00, 
  0x06, 0x00, 0x00, 0x00, 0x04, 0x00, 0x00, 0x00, 0x01, 0x00, 0x00, 0x00, 
  0xea, 0x03, 0x00, 0x00, 0x0c, 0x00, 0x18, 0x00, 0x14, 0x00, 0x10, 0x00, 
  0x0c, 0x00, 0x04, 0x00, 0x0c, 0x00, 0x00, 0x00, 0xe1, 0x4c, 0x08, 0xc1, 
  0x37, 0x38, 0x19, 0x2e, 0x02, 0x00, 0x00, 0x00, 0x02, 0x00, 0x00, 0x00, 
  0x04, 0x00, 0x00, 0x00, 0x06, 0x00, 0x00, 0x00, 0x32, 0x2e, 0x31, 0x38, 
  0x2e, 0x30, 0x00, 0x00, 0xa2, 0xde, 0xff, 0xff, 0x04, 0x00, 0x00, 0x00, 
  0x10, 0x00, 0x00, 0x00, 0x32, 0x2e, 0x31, 0x37, 0x2e, 0x30, 0x00, 0x00, 
  0x00, 0x00, 0x00, 0x00, 0x00, 0x00, 0x00, 0x00, 0x54, 0xce, 0xff, 0xff, 
  0x58, 0xce, 0xff, 0xff, 0x5c, 0xce, 0xff, 0xff, 0x60, 0xce, 0xff, 0xff, 
  0x64, 0xce, 0xff, 0xff, 0x68, 0xce, 0xff, 0xff, 0x6c, 0xce, 0xff, 0xff, 
  0x70, 0xce, 0xff, 0xff, 0x74, 0xce, 0xff, 0xff, 0x78, 0xce, 0xff, 0xff, 
  0x7c, 0xce, 0xff, 0xff, 0x80, 0xce, 0xff, 0xff, 0x84, 0xce, 0xff, 0xff, 
  0x88, 0xce, 0xff, 0xff, 0x8c, 0xce, 0xff, 0xff, 0xfa, 0xde, 0xff, 0xff, 
  0x04, 0x00, 0x00, 0x00, 0x82, 0x14, 0x00, 0x00, 0x3f, 0x1d, 0xbe, 0xf1, 
  0xec, 0x14, 0xfb, 0x1b, 0x2a, 0x10, 0x22, 0xfe, 0xce, 0x3a, 0xbd, 0xee, 
  0xe6, 0xf3, 0x16, 0xf8, 0x05, 0xd6, 0xd3, 0xec, 0xff, 0xe5, 0x14, 0xd5, 
  0x35, 0xc4, 0x4a, 0x28, 0x27, 0x33, 0x42, 0xf2, 0xd2, 0xf6, 0xed, 0xdd, 
  0xfe, 0x16, 0x22, 0x0d, 0xf1, 0xe3, 0xb4, 0xd9, 0x2f, 0xca, 0x01, 0x0e, 
  0xe9, 0x0d, 0xe9, 0xda, 0xce, 0xbb, 0x01, 0x81, 0x14, 0xd5, 0x01, 0xf7, 
  0xf5, 0x1a, 0xc6, 0x27, 0xf4, 0xc2, 0x16, 0x56, 0x0b, 0x0c, 0x0e, 0xd8, 
  0xbc, 0xce, 0x1f, 0xe6, 0x4f, 0x36, 0xf8, 0xf0, 0x51, 0xea, 0xc6, 0xd8, 
  0x2c, 0xd0, 0x2e, 0xde, 0x09, 0x14, 0x1a, 0x26, 0xf2, 0xd9, 0xfc, 0xd1, 
  0xf7, 0xd1, 0xfe, 0x26, 0xde, 0x04, 0xb4, 0x02, 0x4b, 0xc2, 0x06, 0x2d, 
  0x0e, 0xfa, 0x16, 0x07, 0x0b, 0xe1, 0x44, 0xdb, 0x30, 0x31, 0x41, 0x03, 
  0x05, 0x18, 0xf3, 0xc5, 0x1b, 0xe8, 0x05, 0x37, 0xd7, 0x24, 0x2f, 0xce, 
  0xb3, 0xd6, 0x24, 0xfd, 0xfd, 0xf4, 0x3c, 0xda, 0x06, 0xff, 0x11, 0x02, 
  0x5c, 0xc4, 0x1c, 0x47, 0x0b, 0xf0, 0xfa, 0xd2, 0x14, 0xd9, 0x17, 0xe8, 
  0x34, 0xeb, 0x33, 0x02, 0x11, 0x06, 0xc4, 0xce, 0x17, 0x02, 0x0d, 0xee, 
  0xfb, 0xe1, 0xe5, 0xde, 0xf6, 0xd4, 0xec, 0x0c, 0xc3, 0x0d, 0xe9, 0xff, 
  0xec, 0x1e, 0xcf, 0xbb, 0x3b, 0xbc, 0x2b, 0x19, 0x19, 0x0e, 0x0c, 0xd7, 
  0xe4, 0xd4, 0x43, 0x07, 0x0b, 0x14, 0xff, 0x22, 0xf5, 0xda, 0x24, 0x02, 
  0x35, 0xcd, 0xfa, 0x19, 0xec, 0xf5, 0x33, 0xd0, 0x0c, 0x28, 0x10, 0xc3, 
  0x26, 0x26, 0x00, 0xdf, 0x34, 0xfd, 0xff, 0xdf, 0x22, 0xb8, 0xd7, 0x21, 
  0xef, 0xd3, 0x1c, 0xd8, 0xff, 0xf3, 0xf7, 0xdd, 0x2c, 0x24, 0xca, 0x21, 
  0xec, 0x02, 0xe1, 0xf3, 0xf8, 0x0f, 0x0b, 0xfb, 0xf9, 0xc0, 0x2c, 0xca, 
  0x1e, 0xb5, 0xe6, 0xd8, 0x2b, 0x11, 0xea, 0xc6, 0x1a, 0x1f, 0xb9, 0xf0, 
  0xd2, 0xe6, 0x19, 0x10, 0xf8, 0xdb, 0xd6, 0x17, 0xb4, 0xca, 0xd0, 0xfd, 
  0xfa, 0xdf, 0xb2, 0x19, 0xda, 0x43, 0xe4, 0xba, 0x1a, 0xba, 0xf5, 0xc8, 
  0xe6, 0x0b, 0xef, 0x3d, 0xe6, 0x0e, 0x29, 0xcd, 0xf8, 0x13, 0x33, 0x27, 
  0xe4, 0x04, 0x27, 0xfd, 0x18, 0xe4, 0x11, 0x1f, 0x3c, 0xee, 0x40, 0xd0, 
  0xea, 0x31, 0x2d, 0xc0, 0x14, 0x34, 0x1f, 0x1f, 0x10, 0xc7, 0xe0, 0xf2, 
  0x21, 0xde, 0x32, 0x3c, 0xfd, 0xde, 0xf7, 0xe2, 0x13, 0xe3, 0xe1, 0xd8, 
  0xf6, 0x39, 0x3c, 0xba, 0xfe, 0xd3, 0xfc, 0xf7, 0x98, 0xeb, 0xfe, 0xf4, 
  0xd9, 0xf0, 0xf0, 0x21, 0xcb, 0x81, 0xba, 0xc8, 0x0c, 0xc0, 0xe8, 0x34, 
  0xa3, 0x1c, 0xd0, 0xb3, 0x0e, 0xd8, 0xa9, 0xdd, 0xb3, 0x0c, 0xb6, 0x2b, 
  0xec, 0x07, 0x0c, 0xc9, 0xc3, 0x13, 0x0d, 0x45, 0xf7, 0x19, 0x17, 0x32, 
  0x49, 0xf2, 0x0b, 0x06, 0x39, 0x12, 0x2e, 0x28, 0x43, 0x36, 0x32, 0xf2, 
  0x08, 0x0e, 0x30, 0x02, 0x1d, 0xc9, 0xf1, 0x2f, 0x34, 0x19, 0xf6, 0x21, 
  0x19, 0xdf, 0x46, 0xbd, 0xe3, 0x2b, 0xc6, 0x02, 0x30, 0x42, 0x13, 0xd2, 
  0x24, 0x0f, 0x05, 0xb5, 0xb9, 0x13, 0xfb, 0xda, 0xf5, 0x08, 0xfa, 0xfb, 
  0xcc, 0xcf, 0xda, 0xb9, 0xb0, 0xbb, 0xfe, 0xf3, 0xa6, 0x0e, 0xf7, 0xfb, 
  0xe9, 0xe5, 0xdd, 0xe1, 0xf1, 0xfb, 0xbf, 0x25, 0xd4, 0x04, 0x2f, 0xf6, 
  0xb5, 0xe3, 0x1e, 0x13, 0xef, 0x1f, 0x16, 0xf9, 0x28, 0xdf, 0xd2, 0xe7, 
  0x24, 0x05, 0xe7, 0xf8, 0xf8, 0x26, 0x36, 0xba, 0xfb, 0x30, 0x03, 0xe5, 
  0x32, 0xef, 0x07, 0xf4, 0x17, 0xda, 0x10, 0x33, 0x17, 0x0b, 0x47, 0x00, 
  0xda, 0x2f, 0x02, 0xf9, 0x27, 0xc3, 0x11, 0xe8, 0xed, 0x03, 0xd5, 0x48, 
  0x25, 0xa2, 0xe3, 0xcd, 0xd2, 0xf2, 0x56, 0xf4, 0xd4, 0xff, 0xd1, 0xff, 
  0xea, 0x69, 0x61, 0x22, 0x2b, 0xcd, 0x0f, 0xaa, 0xc7, 0xdb, 0x57, 0x40, 
  0xe7, 0xb6, 0xe7, 0x26, 0x4d, 0xc2, 0x4b, 0x21, 0x17, 0x54, 0xde, 0xa6, 
  0xf8, 0xbf, 0xd6, 0xaf, 0x45, 0xb6, 0x54, 0x20, 0x04, 0xac, 0x1e, 0xb4, 
  0x22, 0x84, 0xeb, 0xd0, 0x7b, 0xd0, 0xf6, 0x01, 0xda, 0x00, 0xe6, 0xa5, 
  0xd3, 0xd6, 0xf6, 0x08, 0xb3, 0xbb, 0xfe, 0xda, 0x0b, 0xd4, 0x14, 0xf1, 
  0x2b, 0xc3, 0x31, 0xec, 0xbb, 0x15, 0xd4, 0xe2, 0x49, 0xd3, 0x0c, 0x54, 
  0x2b, 0xf1, 0x06, 0xd2, 0x06, 0xbf, 0x57, 0x8f, 0x23, 0x66, 0xdd, 0xc9, 
  0xdf, 0x1d, 0xc2, 0xce, 0x78, 0xed, 0x20, 0x51, 0x5f, 0xf5, 0x49, 0xff, 
  0x1a, 0xb5, 0xfb, 0x15, 0x1a, 0xd2, 0x3b, 0xc6, 0xc2, 0xd8, 0x90, 0x81, 
  0x39, 0x66, 0xc5, 0x22, 0xd3, 0xac, 0x20, 0x08, 0x8d, 0x3c, 0x20, 0xd8, 
  0x39, 0x13, 0xc3, 0xb6, 0x1d, 0xd2, 0xd0, 0xb9, 0x43, 0xa0, 0x2e, 0x3e, 
  0xc8, 0x4c, 0x02, 0x46, 0x91, 0x2b, 0x2b, 0xb8, 0x24, 0x00, 0x45, 0xed, 
  0xe6, 0x19, 0xce, 0x4a, 0x08, 0x9b, 0x23, 0xfb, 0x03, 0xbb, 0x27, 0xb9, 
  0xc4, 0xe8, 0xd9, 0x52, 0x0f, 0x39, 0x0a, 0xea, 0xfb, 0x21, 0x1b, 0x2f, 
  0x47, 0x37, 0x24, 0x31, 0xe4, 0xf7, 0x31, 0xde, 0xd5, 0x1e, 0x0e, 0x0d, 
  0xa4, 0x2e, 0x3c, 0x3b, 0x0c, 0xf2, 0x1b, 0x33, 0x0f, 0xff, 0xf6, 0x42, 
  0x1d, 0xd8, 0xe6, 0x4d, 0xe8, 0x29, 0xc3, 0xbd, 0xc5, 0xdc, 0xd7, 0xca, 
  0xf2, 0xd3, 0xdc, 0x45, 0xef, 0x15, 0xd0, 0x1e, 0x33, 0x3e, 0x2e, 0xec, 
  0xd3, 0xd0, 0x1b, 0xd2, 0xe0, 0x2e, 0x2d, 0x2d, 0xf7, 0xd6, 0xd4, 0x1f, 
  0x2d, 0x1c, 0xc2, 0xdd, 0xf8, 0xed, 0xe1, 0x04, 0xe6, 0x29, 0x30, 0x30, 
  0xba, 0xe2, 0xe7, 0x3a, 0x18, 0x38, 0x0d, 0x42, 0x0f, 0x7f, 0xb2, 0x0e, 
  0xcd, 0x1f, 0x0b, 0x0b, 0x44, 0x55, 0xee, 0x23, 0xf1, 0x37, 0x23, 0x22, 
  0x3d, 0x25, 0x36, 0x35, 0xe3, 0x11, 0x2b, 0x2b, 0xf2, 0x0c, 0x07, 0xd1, 
  0x38, 0xe7, 0xea, 0x2a, 0x05, 0xef, 0x04, 0x1c, 0x16, 0xd7, 0x02, 0x10, 
  0xda, 0x2f, 0xba, 0xf6, 0x16, 0xd8, 0xea, 0xed, 0x0b, 0x02, 0x19, 0x56, 
  0xce, 0x2c, 0xda, 0xfb, 0x05, 0xef, 0x49, 0xed, 0x02, 0x61, 0xe7, 0xea, 
  0x1f, 0x15, 0xe4, 0xe9, 0xdf, 0xe7, 0x21, 0x3d, 0xdd, 0x0d, 0x07, 0x36, 
  0x2e, 0x3d, 0x24, 0x23, 0x32, 0x66, 0x19, 0x24, 0x0d, 0x0e, 0x2c, 0x1b, 
  0x4f, 0x03, 0x06, 0x6f, 0xbb, 0xd0, 0xf4, 0xf8, 0x1f, 0x0a, 0x45, 0x1b, 
  0x18, 0x69, 0x0d, 0x12, 0xec, 0xfa, 0x21, 0x32, 0x2c, 0x44, 0xfe, 0x12, 
  0xf2, 0x0e, 0x39, 0xf0, 0xe5, 0x20, 0x44, 0xf7, 0x2c, 0x07, 0x0e, 0xf6, 
  0x29, 0xe7, 0x01, 0xc4, 0x40, 0x18, 0xcf, 0x2c, 0x15, 0x1e, 0xd3, 0xff, 
  0x0e, 0x0b, 0x45, 0x18, 0xcd, 0x48, 0x0b, 0xf8, 0x09, 0xff, 0x18, 0xf1, 
  0x1a, 0x12, 0xcf, 0x30, 0x1e, 0xdd, 0x0f, 0x00, 0x06, 0x1b, 0x49, 0x05, 
  0x44, 0x25, 0x23, 0xd4, 0xdf, 0x05, 0x00, 0xfe, 0x0d, 0x3c, 0x3b, 0x71, 
  0x11, 0xf7, 0x0e, 0x39, 0xf1, 0x01, 0x32, 0xfa, 0xf4, 0x29, 0x47, 0xf7, 
  0xf2, 0xe8, 0x43, 0xdc, 0x2a, 0x19, 0x39, 0x60, 0x2c, 0xf0, 0x29, 0x1b, 
  0xe1, 0x21, 0xfa, 0x12, 0x12, 0x33, 0xe1, 0xea, 0xdb, 0x33, 0xe4, 0x31, 
  0xe6, 0xfe, 0xfa, 0x2d, 0x32, 0xc9, 0xf4, 0xf8, 0x24, 0xfd, 0x01, 0xdc, 
  0xf5, 0x46, 0x04, 0xfc, 0xd0, 0xe0, 0x10, 0x1c, 0x29, 0x0f, 0x1b, 0xdb, 
  0xb0, 0x15, 0xfd, 0x19, 0xe2, 0xe6, 0x35, 0xe4, 0xda, 0xfe, 0x1a, 0x2b, 
  0xe7, 0xf1, 0xcf, 0xef, 0x11, 0x40, 0xd1, 0x30, 0xc9, 0x03, 0x06, 0x35, 
  0xfb, 0xbb, 0x55, 0x06, 0x1f, 0x28, 0x01, 0x39, 0x18, 0xf3, 0x4a, 0x05, 
  0x5b, 0xeb, 0xf2, 0x59, 0x30, 0x00, 0xe4, 0xe1, 0x07, 0x2e, 0xe5, 0x18, 
  0xe7, 0x2b, 0xe0, 0xd2, 0xc1, 0xe7, 0xe4, 0xe1, 0xfd, 0x0f, 0xdf, 0x3c, 
  0xaf, 0xd3, 0x09, 0x38, 0x05, 0x49, 0x2c, 0x57, 0x0d, 0x3a, 0xe0, 0x38, 
  0x1c, 0x4c, 0xd2, 0x34, 0x44, 0x20, 0xf5, 0x5b, 0xa4, 0xe8, 0xe9, 0xed, 
  0x02, 0x5c, 0x1d, 0x1e, 0xa2, 0x38, 0xd9, 0xd1, 0xa1, 0xe5, 0x18, 0xe8, 
  0xed, 0xda, 0xdf, 0xf3, 0x12, 0x96, 0xf4, 0xf9, 0xd3, 0xe1, 0x3f, 0x48, 
  0x19, 0x44, 0xd8, 0xd9, 0xe0, 0x21, 0x32, 0xe0, 0x58, 0x61, 0xb8, 0x25, 
  0xde, 0xc4, 0x50, 0x18, 0xea, 0xc5, 0x7f, 0xf0, 0xe5, 0x5e, 0x06, 0x42, 
  0x3f, 0xee, 0x10, 0x21, 0x64, 0x06, 0xd4, 0x0e, 0xf6, 0xee, 0x07, 0x3a, 
  0x1c, 0x3a, 0x73, 0x1f, 0xc1, 0x64, 0xe6, 0x33, 0x09, 0x22, 0xdf, 0x51, 
  0x29, 0x1c, 0x01, 0x52, 0x25, 0xff, 0xbb, 0x22, 0x32, 0x3c, 0x50, 0x05, 
  0x01, 0x46, 0xe8, 0xf2, 0x0d, 0x16, 0x2d, 0x44, 0x52, 0x4a, 0x48, 0x11, 
  0x2c, 0xc9, 0x03, 0x0f, 0x35, 0x4a, 0xd8, 0xea, 0xee, 0x39, 0x1b, 0xe2, 
  0xf6, 0xe8, 0xff, 0x1f, 0x1e, 0x2c, 0xc7, 0x42, 0x32, 0xb5, 0xc2, 0x15, 
  0xc8, 0xd3, 0x26, 0xf4, 0xc1, 0x05, 0x43, 0xab, 0xf6, 0x3a, 0xbd, 0xea, 
  0x56, 0x12, 0x21, 0xed, 0xf1, 0xf6, 0xd6, 0xf3, 0x01, 0xac, 0x37, 0x28, 
  0x18, 0x24, 0x51, 0xd3, 0x3e, 0x29, 0x52, 0xd1, 0x42, 0xd9, 0x01, 0x1d, 
  0x06, 0xf8, 0xf0, 0xf7, 0xf9, 0x3a, 0xea, 0x10, 0xba, 0x3a, 0xff, 0x11, 
  0x1e, 0x2d, 0x07, 0xe1, 0x3a, 0xeb, 0x1b, 0x5a, 0xb7, 0x0c, 0xdd, 0x1d, 
  0x24, 0x13, 0xe5, 0x0e, 0xbe, 0x57, 0xcc, 0xfb, 0x0e, 0x1d, 0x19, 0xfb, 
  0x26, 0x40, 0xd2, 0x22, 0x00, 0xf8, 0xc9, 0xdd, 0x1d, 0x16, 0x27, 0xfc, 
  0xd6, 0x13, 0xe1, 0x07, 0x36, 0x15, 0x1a, 0x21, 0x56, 0x0f, 0xde, 0xfc, 
  0xd1, 0xf4, 0xfb, 0xef, 0x09, 0xe7, 0xf9, 0x0c, 0xff, 0x21, 0xbb, 0x16, 
  0x2d, 0xea, 0xdf, 0x13, 0x4b, 0x04, 0xf9, 0x76, 0xf4, 0xef, 0xdf, 0x14, 
  0xdf, 0x21, 0x53, 0xff, 0x05, 0x1d, 0xb6, 0xf0, 0x11, 0x24, 0x0a, 0x1b, 
  0x10, 0x21, 0xf0, 0x27, 0xf0, 0x08, 0xd4, 0xf9, 0xc2, 0x06, 0x34, 0xf6, 
  0x15, 0x49, 0xba, 0xc3, 0xe7, 0x2c, 0x0d, 0xe6, 0x17, 0x34, 0xfb, 0x7f, 
  0x09, 0x28, 0x26, 0x16, 0x38, 0x04, 0xff, 0x0f, 0xc7, 0x39, 0xc9, 0x14, 
  0xeb, 0x03, 0xfe, 0x08, 0x29, 0x0b, 0xd5, 0x3e, 0x16, 0xf2, 0xe3, 0x02, 
  0x15, 0xe3, 0x10, 0x17, 0xfc, 0x50, 0x06, 0xfb, 0x27, 0x07, 0x2a, 0x28, 
  0x19, 0x22, 0xcd, 0x06, 0xca, 0x1a, 0xe5, 0x23, 0xd3, 0x31, 0x5a, 0xff, 
  0xde, 0x45, 0xd7, 0xe7, 0xf6, 0x04, 0x17, 0x05, 0x48, 0xf0, 0x16, 0x70, 
  0x0f, 0x12, 0x27, 0xf1, 0xdd, 0xfa, 0x35, 0x3b, 0x1d, 0x5c, 0x31, 0xb6, 
  0xf1, 0xf7, 0xd1, 0xec, 0x2e, 0x3c, 0xdd, 0x23, 0xcb, 0xd6, 0x27, 0xfa, 
  0x2d, 0xe0, 0x0f, 0xed, 0xff, 0x1b, 0x0e, 0x12, 0x19, 0x38, 0xf2, 0x20, 
  0x0f, 0x27, 0x01, 0x54, 0xe2, 0xcb, 0x04, 0x0e, 0xd2, 0xd2, 0x28, 0x03, 
  0xfd, 0x3b, 0x2f, 0xc5, 0x23, 0xe7, 0x19, 0x2c, 0x3a, 0x29, 0xbd, 0x59, 
  0x0b, 0xbf, 0x1d, 0x0a, 0x25, 0x41, 0x2c, 0x1e, 0xfe, 0x35, 0x1b, 0xd6, 
  0xda, 0x22, 0x05, 0x02, 0x1a, 0x29, 0xea, 0x32, 0xdc, 0x13, 0x25, 0x1e, 
  0xd3, 0x57, 0x49, 0x15, 0xf1, 0xc2, 0xf3, 0xe7, 0x00, 0xfe, 0x45, 0x3a, 
  0x3e, 0xe2, 0x02, 0x40, 0x4c, 0x35, 0xea, 0x51, 0xe4, 0x49, 0xef, 0x44, 
  0x19, 0x54, 0x25, 0x1b, 0xea, 0xd6, 0x0a, 0xe2, 0x0a, 0x06, 0x09, 0xfd, 
  0x0d, 0xe6, 0x01, 0xcc, 0xf4, 0x19, 0x10, 0xf3, 0x37, 0x29, 0x66, 0x04, 
  0x4a, 0xdf, 0xe3, 0xdc, 0xf1, 0x01, 0x4c, 0x02, 0x0f, 0x2b, 0xee, 0x13, 
  0xe6, 0x1d, 0xf2, 0xea, 0xe3, 0xce, 0xdd, 0x33, 0x39, 0xc3, 0x4e, 0xd7, 
  0x0e, 0x42, 0x0b, 0x4a, 0x2c, 0xd8, 0xdc, 0xe0, 0x46, 0xf0, 0xdc, 0x22, 
  0x20, 0x42, 0x23, 0xe4, 0x81, 0x9a, 0x1f, 0xf3, 0xf0, 0xbb, 0x38, 0xff, 
  0x54, 0xe2, 0xb5, 0xc4, 0xa9, 0xed, 0xdc, 0xc8, 0x64, 0x8d, 0x1f, 0x08, 
  0xfa, 0x1a, 0x3b, 0xb3, 0x2c, 0x2a, 0x6b, 0x09, 0x42, 0x56, 0x08, 0xfd, 
  0x20, 0xa6, 0x21, 0xf4, 0xd3, 0xfc, 0x00, 0x02, 0x1c, 0xc1, 0x1a, 0x25, 
  0xba, 0xe6, 0x14, 0x2f, 0x64, 0xf1, 0xd7, 0xb3, 0xcd, 0x16, 0x9f, 0xf7, 
  0x23, 0xb3, 0x01, 0xd1, 0xd4, 0x04, 0xa5, 0x4c, 0xb7, 0xd4, 0x0c, 0x04, 
  0xec, 0x05, 0xf0, 0xb3, 0x44, 0x06, 0x11, 0xe6, 0x2a, 0x2d, 0x06, 0x25, 
  0xf9, 0x34, 0x17, 0x00, 0x25, 0xb5, 0xe5, 0x2a, 0x0a, 0x04, 0x07, 0x14, 
  0x40, 0x2f, 0xe3, 0xfb, 0xfa, 0x40, 0x11, 0x2c, 0xf0, 0x3d, 0xc0, 0xf9, 
  0x0f, 0xd1, 0xfc, 0xec, 0x39, 0xb3, 0xf4, 0x0a, 0x43, 0x0f, 0x07, 0xd5, 
  0x65, 0x0e, 0xee, 0xdc, 0xe6, 0x43, 0xdc, 0x11, 0x01, 0xba, 0x02, 0x23, 
  0xd9, 0x0b, 0xc4, 0xfa, 0x2f, 0xe1, 0x1c, 0xa6, 0xbc, 0x4b, 0x5e, 0x06, 
  0x03, 0x52, 0x39, 0x16, 0xeb, 0xa4, 0xef, 0xa3, 0x44, 0x03, 0x1a, 0x2c, 
  0xe0, 0xc0, 0xe7, 0x72, 0xe0, 0xf2, 0xdb, 0x2a, 0x2e, 0x2a, 0xf6, 0x08, 
  0x1b, 0xca, 0x45, 0x06, 0xe0, 0x30, 0xcf, 0x23, 0xf2, 0x12, 0xd4, 0x20, 
  0x2e, 0xd1, 0xec, 0x1c, 0x30, 0xf8, 0xe0, 0xde, 0x2b, 0xeb, 0x21, 0x01, 
  0x1c, 0xf4, 0x14, 0x33, 0xf7, 0x13, 0xe7, 0x1d, 0xb1, 0x65, 0x39, 0x06, 
  0x2e, 0xbb, 0xf2, 0xfa, 0xed, 0xf4, 0xc5, 0x40, 0xb6, 0x04, 0x13, 0xd7, 
  0x0e, 0xf1, 0x2c, 0x1c, 0x03, 0x4e, 0x16, 0xc4, 0xe7, 0xf7, 0xbd, 0x3b, 
  0x14, 0xfc, 0xc9, 0xeb, 0xb6, 0xc9, 0xc7, 0x44, 0xf7, 0x0e, 0x21, 0x51, 
  0xf5, 0x2f, 0x0d, 0x2c, 0xe3, 0xe8, 0xcb, 0x27, 0x10, 0x2d, 0x05, 0x34, 
  0xc4, 0x1b, 0x03, 0x18, 0x08, 0x10, 0x53, 0x57, 0x11, 0x4e, 0x11, 0x42, 
  0x2a, 0xfc, 0x19, 0xe7, 0x33, 0x2d, 0xf6, 0x79, 0x26, 0xeb, 0x10, 0x0b, 
  0xd2, 0x0e, 0x2c, 0xc9, 0xca, 0x23, 0xeb, 0x00, 0xf9, 0xe3, 0x13, 0x2b, 
  0xf3, 0x13, 0xa4, 0xeb, 0xd6, 0xbd, 0xea, 0x49, 0xe4, 0x11, 0xf2, 0x24, 
  0xb0, 0xf0, 0xbc, 0xee, 0x00, 0x0c, 0xb9, 0x41, 0x17, 0x37, 0xe0, 0x2f, 
  0x0a, 0xb7, 0xf3, 0xe1, 0x18, 0x36, 0x23, 0x4f, 0x2e, 0xe0, 0xf0, 0x40, 
  0xf7, 0x41, 0x3b, 0x05, 0x0e, 0x3b, 0x44, 0xf5, 0xe9, 0xf9, 0x3d, 0x49, 
  0x3e, 0xb2, 0x06, 0x50, 0xee, 0xd4, 0x37, 0x35, 0x52, 0xfe, 0x0d, 0xd1, 
  0x17, 0x1f, 0x03, 0x1d, 0xe5, 0x17, 0x0d, 0x01, 0xeb, 0xe1, 0x0f, 0xf7, 
  0xd4, 0x29, 0x46, 0x22, 0xed, 0xd2, 0xe5, 0x1e, 0x09, 0xe1, 0x81, 0x0f, 
  0x25, 0xd5, 0xcb, 0xd3, 0x10, 0x0a, 0xeb, 0xfd, 0xeb, 0x35, 0x04, 0xa2, 
  0xd4, 0xeb, 0xfd, 0x07, 0xc5, 0x36, 0xc4, 0xfc, 0xf6, 0xbe, 0xcf, 0x11, 
  0xbf, 0x22, 0xfd, 0xfe, 0x17, 0xfe, 0xf9, 0x2b, 0x19, 0xdf, 0xfa, 0xda, 
  0xcb, 0xdc, 0x1f, 0x3d, 0xab, 0xdb, 0xd2, 0xdd, 0x02, 0xd1, 0x3b, 0xec, 
  0x33, 0x27, 0xdd, 0x23, 0x09, 0xf7, 0x1e, 0xdd, 0xf8, 0x23, 0xff, 0x5a, 
  0x1c, 0xe9, 0xfb, 0xfc, 0xd1, 0x36, 0x45, 0x00, 0xd8, 0xfb, 0x10, 0xef, 
  0x1f, 0x3f, 0x2a, 0xe4, 0x15, 0xfc, 0xce, 0x47, 0x0c, 0x0d, 0xea, 0x0a, 
  0x16, 0x06, 0x22, 0x59, 0xc7, 0x18, 0xf6, 0x04, 0x17, 0x1e, 0xd9, 0x2f, 
  0x52, 0xff, 0xbb, 0x27, 0x09, 0xe8, 0x09, 0x0c, 0xf0, 0xfe, 0x2c, 0x50, 
  0xcf, 0x70, 0xf7, 0x1d, 0x09, 0x21, 0xe6, 0xe2, 0x15, 0x18, 0x97, 0x0c, 
  0xe6, 0x1b, 0xc6, 0x2c, 0x1b, 0x02, 0x3c, 0xf8, 0xeb, 0x0c, 0xd3, 0xe4, 
  0x24, 0x21, 0x28, 0x27, 0x23, 0x4f, 0x00, 0x32, 0x17, 0x0d, 0xed, 0xf1, 
  0xdd, 0x15, 0x17, 0x2e, 0xce, 0x1f, 0x24, 0x01, 0x1a, 0xf0, 0xfc, 0x15, 
  0x48, 0x05, 0x05, 0x08, 0xf0, 0x1a, 0xed, 0x27, 0xe2, 0x2e, 0x38, 0x3a, 
  0xf7, 0x30, 0x1f, 0x0d, 0xc5, 0x45, 0x00, 0x38, 0x2a, 0x52, 0xf1, 0x47, 
  0xbe, 0x17, 0xec, 0x1b, 0xf0, 0xe1, 0x54, 0x24, 0xeb, 0x5d, 0xd0, 0xc1, 
  0xe2, 0x32, 0xca, 0xf1, 0x60, 0x32, 0xcf, 0x69, 0x28, 0x22, 0x27, 0xed, 
  0xd8, 0x02, 0x43, 0xe7, 0xca, 0x3e, 0xe8, 0xe3, 0xc0, 0x14, 0x28, 0x06, 
  0x2d, 0x4c, 0xc3, 0x58, 0xd6, 0xef, 0xc5, 0xe2, 0x17, 0xe1, 0x48, 0x3e, 
  0xbc, 0x3f, 0xf9, 0xb6, 0xc3, 0xfb, 0x2a, 0xe3, 0x2c, 0x08, 0x0d, 0x3a, 
  0xdd, 0x05, 0x32, 0xda, 0x27, 0x0c, 0x53, 0x3d, 0xe9, 0x71, 0x39, 0x1f, 
  0xd4, 0x3b, 0x26, 0x27, 0x3a, 0x32, 0xe7, 0x5c, 0xf8, 0xff, 0x3d, 0xd8, 
  0xea, 0x07, 0x30, 0x35, 0x05, 0x39, 0xd9, 0x03, 0xed, 0x02, 0x31, 0xec, 
  0x31, 0x10, 0xef, 0x7f, 0xe7, 0xd5, 0xbf, 0xe4, 0x0e, 0xfc, 0xdf, 0x09, 
  0x2b, 0x09, 0xdc, 0xfc, 0xd5, 0xe4, 0xa9, 0xed, 0x0f, 0xc7, 0xe6, 0xcb, 
  0xe5, 0xda, 0xf3, 0x0d, 0x28, 0x31, 0xd5, 0xed, 0x26, 0xbf, 0xe1, 0x2b, 
  0x38, 0x14, 0xe0, 0x29, 0x09, 0xc9, 0xe6, 0xbc, 0xee, 0xf1, 0x02, 0x10, 
  0x33, 0xe0, 0x2a, 0x02, 0xfe, 0xe9, 0xe8, 0x2a, 0x52, 0xe4, 0x16, 0xa5, 
  0xed, 0x33, 0xd8, 0xb6, 0xfc, 0x05, 0x11, 0xd5, 0x13, 0xd7, 0x18, 0x0a, 
  0xef, 0xca, 0x3b, 0x21, 0x21, 0xfc, 0xd6, 0x9f, 0xdc, 0x0f, 0xe3, 0x07, 
  0x47, 0x14, 0x08, 0x03, 0xcb, 0x3a, 0xc2, 0x0b, 0xc5, 0xd8, 0x01, 0x81, 
  0xbf, 0xc7, 0xd2, 0x2b, 0xbf, 0xf8, 0x34, 0xd6, 0x01, 0xa4, 0x01, 0x1d, 
  0x9e, 0x39, 0xe6, 0xf5, 0x50, 0xb8, 0xdf, 0xde, 0xf3, 0xeb, 0x0c, 0x39, 
  0xff, 0xfa, 0x2b, 0xc7, 0xcb, 0x26, 0x58, 0x09, 0x4d, 0xc0, 0xf7, 0x2e, 
  0xf3, 0xbf, 0xe0, 0xfd, 0x33, 0xf0, 0x18, 0x98, 0xf5, 0x28, 0x2c, 0xd4, 
  0x27, 0x30, 0x0d, 0x1e, 0xff, 0xf6, 0x1f, 0xef, 0x26, 0xf6, 0x36, 0x3e, 
  0x3f, 0xd0, 0x22, 0x0e, 0x2d, 0x14, 0xa6, 0x2c, 0xd5, 0xc4, 0x0e, 0xc5, 
  0xe8, 0xf2, 0x17, 0xfd, 0xf7, 0xe4, 0xaa, 0xd4, 0xe6, 0xdf, 0xa1, 0x59, 
  0x09, 0xcb, 0xe6, 0x1b, 0x05, 0xdf, 0xdc, 0xe5, 0xf1, 0x43, 0xfc, 0x3b, 
  0x2d, 0xc7, 0xf9, 0x29, 0x28, 0x1a, 0x06, 0x15, 0xf9, 0x41, 0x22, 0xd9, 
  0x0c, 0x1d, 0x37, 0x15, 0xe3, 0x30, 0xe0, 0x1e, 0x5a, 0x52, 0xd3, 0x65, 
  0x5b, 0xe7, 0x3d, 0xd9, 0xf0, 0x2e, 0x2e, 0x44, 0xcc, 0x48, 0x20, 0xd5, 
  0x00, 0xfb, 0xeb, 0x38, 0xf6, 0x22, 0xe4, 0x04, 0x21, 0xc6, 0x3b, 0xbb, 
  0xf6, 0xd5, 0xda, 0xe4, 0x0b, 0xfc, 0x05, 0xad, 0xb8, 0xdb, 0xce, 0x95, 
  0xed, 0x28, 0xc6, 0xa2, 0xd8, 0x32, 0xb3, 0xdb, 0x2c, 0x9a, 0x0b, 0x8f, 
  0x0d, 0x15, 0xe2, 0xc4, 0xe8, 0x32, 0xfe, 0x2e, 0x1b, 0xdd, 0xfa, 0x26, 
  0x1a, 0xf3, 0x0e, 0x0e, 0x21, 0x01, 0x12, 0x9d, 0x07, 0xeb, 0x52, 0xc4, 
  0x44, 0xc3, 0x05, 0xe5, 0xea, 0xbe, 0x5c, 0x02, 0x19, 0x0d, 0xf3, 0xbb, 
  0x19, 0x2a, 0x19, 0x2b, 0xcf, 0x0f, 0x36, 0xc1, 0x00, 0xfb, 0xb9, 0xce, 
  0x45, 0xc5, 0x15, 0xf9, 0xff, 0xb5, 0xbb, 0xda, 0x14, 0xa3, 0x27, 0xc3, 
  0x25, 0x15, 0x0f, 0x05, 0xef, 0x23, 0xbf, 0xd9, 0x16, 0xe6, 0xe2, 0x28, 
  0x23, 0xf0, 0xe2, 0x16, 0xed, 0x39, 0x25, 0x07, 0x2c, 0x13, 0xdd, 0xcf, 
  0x33, 0xaa, 0xe8, 0xef, 0x3b, 0xf4, 0x50, 0x59, 0x37, 0xe8, 0x2c, 0xf9, 
  0xaf, 0xbe, 0xdd, 0x08, 0x36, 0x0a, 0x2f, 0xda, 0x0b, 0xc9, 0xe2, 0xe4, 
  0xfc, 0xec, 0x22, 0xfe, 0xec, 0x22, 0xf6, 0x21, 0xd8, 0xd5, 0xef, 0xef, 
  0x37, 0xeb, 0x12, 0xb9, 0x32, 0xf5, 0x0e, 0xaa, 0x31, 0xe9, 0xf0, 0xf4, 
  0x2e, 0x1f, 0xc8, 0x3b, 0xea, 0xd4, 0x1e, 0xce, 0xd6, 0xe7, 0xe0, 0xe3, 
  0x17, 0x2c, 0xe4, 0xde, 0x51, 0x44, 0x30, 0xec, 0xe2, 0xe0, 0x1d, 0xd7, 
  0xee, 0x08, 0x2b, 0x03, 0x34, 0xfa, 0x2e, 0xee, 0xd5, 0xef, 0xbc, 0x0d, 
  0xf3, 0x11, 0x35, 0x3a, 0xde, 0xc8, 0x33, 0x35, 0xc6, 0xb7, 0xd7, 0xe7, 
  0x02, 0x1a, 0x02, 0x29, 0x04, 0x0d, 0x81, 0x0e, 0x13, 0x99, 0xb3, 0x38, 
  0xc7, 0xed, 0x05, 0x22, 0xec, 0x18, 0x64, 0xd0, 0x1f, 0x2b, 0x21, 0x1c, 
  0xd3, 0xcd, 0xce, 0x07, 0x5d, 0xc2, 0x2a, 0x46, 0xf0, 0x28, 0xf2, 0xcd, 
  0xa9, 0xe3, 0xde, 0xdd, 0xe2, 0xcb, 0x0a, 0x20, 0x0e, 0x01, 0xf0, 0xf6, 
  0xaf, 0xfa, 0x24, 0xfe, 0xbc, 0x10, 0xa2, 0x12, 0x1f, 0x07, 0x23, 0xe0, 
  0xfb, 0xf0, 0x1e, 0x24, 0x12, 0x2c, 0x12, 0x23, 0x1c, 0x39, 0xf9, 0xcc, 
  0x12, 0xe2, 0xdc, 0x01, 0xe0, 0xcf, 0x29, 0x2a, 0x12, 0x08, 0xe4, 0x02, 
  0x01, 0xc6, 0xd2, 0x40, 0xb9, 0x1e, 0xe8, 0xf0, 0x23, 0xd4, 0x21, 0xf8, 
  0x19, 0x14, 0xc7, 0x58, 0xfd, 0xe3, 0x1c, 0x2f, 0xff, 0x09, 0xf0, 0x20, 
  0xd9, 0x3f, 0x23, 0xdf, 0xfc, 0x39, 0x01, 0xff, 0x1d, 0xe7, 0xfb, 0x12, 
  0x12, 0x17, 0xf8, 0x42, 0xee, 0xf5, 0x43, 0x26, 0xc9, 0x2d, 0xf7, 0x1e, 
  0x25, 0xe0, 0xea, 0xfe, 0x09, 0x01, 0x15, 0x18, 0xe8, 0xe1, 0x42, 0xe8, 
  0xda, 0xf5, 0x07, 0x0c, 0xfc, 0xf3, 0xcc, 0xdd, 0x22, 0x2d, 0xee, 0xec, 
  0x3e, 0x33, 0xfb, 0xf6, 0xfa, 0x0a, 0xd9, 0xea, 0x34, 0xf4, 0x37, 0xf9, 
  0xce, 0x1c, 0xd3, 0xd3, 0x0d, 0x39, 0x2a, 0x0f, 0x27, 0x31, 0x10, 0x20, 
  0xd2, 0x18, 0x11, 0x30, 0x2e, 0xf0, 0x2a, 0xdf, 0xad, 0x19, 0xbd, 0x25, 
  0x2c, 0xfc, 0xf9, 0xe7, 0x42, 0x07, 0xe2, 0x56, 0x06, 0xd4, 0xdf, 0x06, 
  0x2b, 0x39, 0x21, 0xea, 0xcb, 0x3f, 0xc6, 0xd0, 0x0f, 0x3b, 0xfb, 0x38, 
  0x4e, 0xf1, 0xf2, 0x1d, 0xff, 0xee, 0x19, 0x39, 0x2d, 0x1f, 0xff, 0x1c, 
  0xe7, 0xf7, 0x25, 0x30, 0xfb, 0xf3, 0xd4, 0xf2, 0xfd, 0x34, 0xb9, 0x4a, 
  0x04, 0x0a, 0x29, 0x1c, 0xf4, 0xf4, 0x46, 0x2a, 0xb1, 0x1f, 0xed, 0xfa, 
  0xfe, 0xff, 0xf9, 0x35, 0x2a, 0xfd, 0xf4, 0x70, 0x2a, 0xcf, 0x27, 0x35, 
  0xf7, 0x16, 0x0d, 0xe6, 0xab, 0x42, 0xff, 0xd5, 0xcd, 0x2b, 0xc0, 0x1c, 
  0x2d, 0xf1, 0xb6, 0x33, 0xf4, 0xde, 0x15, 0xff, 0x13, 0xf0, 0x38, 0x00, 
  0x0f, 0x04, 0xd0, 0x15, 0x2d, 0xe7, 0xcd, 0x0a, 0x2d, 0x2c, 0x22, 0x2d, 
  0x29, 0xcb, 0x02, 0x26, 0xe1, 0x07, 0x41, 0x3a, 0xc6, 0x7f, 0x20, 0xf6, 
  0x2f, 0x34, 0xfb, 0xf9, 0x29, 0x11, 0xce, 0x1d, 0xb0, 0xe9, 0xcd, 0x38, 
  0xb5, 0x14, 0x2b, 0x25, 0x27, 0x47, 0xd8, 0xd1, 0xde, 0xc8, 0x2c, 0x20, 
  0x56, 0xee, 0xb9, 0xfa, 0x0d, 0xb3, 0x0e, 0x5f, 0xc0, 0x3d, 0x25, 0x33, 
  0xf9, 0x4b, 0xd0, 0x2a, 0x2d, 0xc7, 0xcd, 0xeb, 0x58, 0x2b, 0xfa, 0x08, 
  0x01, 0x07, 0xce, 0xd9, 0xec, 0x1a, 0x2d, 0x65, 0xdd, 0x6d, 0x20, 0x34, 
  0x1c, 0xc9, 0xe6, 0x13, 0x71, 0xf2, 0xdc, 0x54, 0xb5, 0x3f, 0x04, 0xef, 
  0x1d, 0xd8, 0x42, 0x31, 0xb7, 0x7c, 0xc8, 0xb1, 0xe1, 0x1a, 0x26, 0xe9, 
  0x10, 0xfb, 0xd7, 0x2b, 0xd7, 0x35, 0x0d, 0xd2, 0x52, 0x30, 0x6f, 0x59, 
  0xa5, 0x7c, 0x92, 0x05, 0x4b, 0x05, 0xeb, 0x69, 0x76, 0x16, 0xb6, 0x1c, 
  0xfc, 0xdd, 0x26, 0x6b, 0x14, 0x00, 0x53, 0x38, 0xef, 0x47, 0xff, 0xaa, 
  0xee, 0xef, 0x1c, 0x10, 0x6b, 0xf2, 0xbb, 0x46, 0xfd, 0xbb, 0x27, 0x11, 
  0xc2, 0xc0, 0x4b, 0xfa, 0x9b, 0x7f, 0x04, 0xd9, 0x43, 0x33, 0x16, 0xf1, 
  0x70, 0xde, 0xe1, 0x2a, 0xe2, 0xc7, 0xd1, 0xf7, 0x29, 0xcb, 0x62, 0x27, 
  0xe7, 0x61, 0x0b, 0xe6, 0x25, 0x32, 0x01, 0x05, 0x48, 0xc8, 0xd9, 0x20, 
  0xd4, 0xca, 0xe2, 0xfa, 0x06, 0x4c, 0x0b, 0x14, 0xcf, 0x49, 0xc6, 0x3c, 
  0x13, 0x1b, 0x03, 0x4c, 0x07, 0x68, 0xae, 0x6a, 0x4e, 0xa5, 0x43, 0xdd, 
  0x0b, 0x0e, 0x25, 0x14, 0xdb, 0x5e, 0x19, 0x00, 0x00, 0x47, 0x4f, 0x57, 
  0x4a, 0x19, 0xbd, 0x0d, 0xdb, 0x1b, 0xfe, 0x35, 0x16, 0xe8, 0x19, 0x29, 
  0x1b, 0x55, 0xe9, 0xbb, 0x0c, 0x39, 0xad, 0xf7, 0xf2, 0x30, 0xce, 0xfb, 
  0x23, 0xdb, 0xb4, 0xe9, 0xc2, 0xb4, 0xf7, 0x65, 0xf0, 0x31, 0x27, 0xa6, 
  0x2e, 0xc4, 0x1c, 0x14, 0x46, 0xf7, 0xc6, 0x0f, 0xc1, 0x3b, 0x18, 0x04, 
  0xdd, 0x12, 0x1c, 0x06, 0xee, 0xe1, 0x5f, 0x21, 0xbe, 0x08, 0x13, 0xfa, 
  0xf5, 0xec, 0xd6, 0xbc, 0x23, 0x26, 0x1e, 0x37, 0xcd, 0xf9, 0x2e, 0xc4, 
  0x23, 0xe4, 0x0c, 0x0c, 0x1f, 0xd1, 0xdf, 0x10, 0xd4, 0xec, 0x30, 0x9e, 
  0x1b, 0x40, 0x09, 0x0a, 0x0d, 0xf6, 0x1e, 0x3c, 0x2b, 0x12, 0x41, 0x59, 
  0x27, 0xb6, 0x53, 0xc1, 0x00, 0x35, 0xd8, 0xb3, 0x74, 0x27, 0x2e, 0xf4, 
  0xfa, 0xf5, 0x07, 0xd4, 0xa2, 0xe9, 0x7f, 0xef, 0x42, 0xb5, 0xe8, 0x26, 
  0xd1, 0x85, 0x29, 0xa3, 0x20, 0xd7, 0xbe, 0xc3, 0x15, 0xf0, 0xec, 0xa9, 
  0x1a, 0xf5, 0x2f, 0x05, 0x0c, 0x1e, 0xd6, 0x1e, 0xd6, 0x35, 0x26, 0x13, 
  0xf0, 0xee, 0x0d, 0x18, 0x40, 0x02, 0x15, 0xc8, 0x3a, 0xe4, 0x47, 0x49, 
  0x22, 0x00, 0x07, 0xfe, 0xce, 0xd1, 0xf0, 0xc5, 0x19, 0x41, 0x12, 0x1f, 
  0x09, 0xc8, 0x17, 0x10, 0x25, 0xb6, 0x17, 0x25, 0x1e, 0xbe, 0xcf, 0xe3, 
  0xfb, 0xda, 0x3d, 0xed, 0x12, 0xfc, 0x40, 0x24, 0x18, 0xff, 0xe5, 0xbe, 
  0x43, 0x0a, 0x1b, 0x4c, 0xdb, 0xe5, 0xf9, 0x0e, 0xe8, 0x9c, 0xfa, 0xf7, 
  0xfe, 0x00, 0xd7, 0x09, 0xd9, 0x06, 0xe9, 0xfe, 0x0a, 0xf3, 0x0d, 0x08, 
  0xeb, 0xd4, 0xc6, 0xd9, 0xe0, 0x23, 0x5c, 0xe3, 0xcf, 0x44, 0xea, 0x00, 
  0xec, 0xd4, 0x17, 0xf5, 0x37, 0x20, 0xdf, 0x2c, 0x47, 0xf1, 0x1b, 0x16, 
  0xeb, 0xab, 0xf4, 0x00, 0xe1, 0x17, 0x07, 0x2e, 0x12, 0xec, 0xfc, 0xb5, 
  0x45, 0xc9, 0xc0, 0x06, 0x1e, 0xf4, 0xe1, 0xe9, 0xfb, 0x3f, 0x17, 0xea, 
  0xec, 0x06, 0xe8, 0x41, 0xe1, 0xe2, 0xe4, 0x61, 0x24, 0xb5, 0xcf, 0x28, 
  0xfe, 0xdf, 0x36, 0x2a, 0x0d, 0xab, 0x0f, 0x1f, 0xe1, 0x38, 0xf6, 0xc7, 
  0x06, 0xdb, 0xbc, 0x19, 0x0e, 0xbb, 0x18, 0xb1, 0xb3, 0x2f, 0xe2, 0xef, 
  0xc3, 0xb1, 0x35, 0xcb, 0x0e, 0x39, 0x2b, 0xf5, 0x5c, 0xcf, 0xbc, 0xec, 
  0x85, 0x47, 0xb8, 0xd2, 0xb8, 0x4d, 0x96, 0xfa, 0xe4, 0x1e, 0xec, 0xe9, 
  0x06, 0x9e, 0xe1, 0x3f, 0x8c, 0x89, 0x29, 0xc9, 0xa7, 0xea, 0x54, 0xcf, 
  0x5b, 0x99, 0x9b, 0xa9, 0x90, 0x3b, 0x2b, 0xb8, 0x26, 0x8d, 0xc1, 0xd8, 
  0x61, 0x24, 0x3b, 0xd7, 0xb9, 0xd0, 0xf5, 0xae, 0xa8, 0x54, 0x39, 0xd8, 
  0xf8, 0x9d, 0xf3, 0x41, 0x3f, 0x53, 0xd3, 0x2f, 0x5f, 0xc2, 0x28, 0x1a, 
  0x10, 0x4d, 0x91, 0xc6, 0x9c, 0xaf, 0x2e, 0xc8, 0x9b, 0xfd, 0x35, 0x6e, 
  0xad, 0xbe, 0x3e, 0xca, 0x86, 0x38, 0x0e, 0x2e, 0xaa, 0x56, 0x43, 0x92, 
  0x97, 0xc6, 0x5d, 0xc9, 0xf9, 0x9c, 0xad, 0x0d, 0x08, 0x2a, 0xe9, 0x0e, 
  0xce, 0x88, 0xd1, 0xd0, 0x9d, 0xa0, 0xe3, 0x04, 0xf8, 0xdb, 0x30, 0x12, 
  0xd6, 0xee, 0xd0, 0x89, 0xf6, 0x4c, 0x61, 0xbc, 0xa7, 0xa5, 0xdd, 0x0f, 
  0x64, 0xa4, 0x30, 0x87, 0x88, 0xec, 0xff, 0xb3, 0xeb, 0xe9, 0x26, 0x2e, 
  0xfc, 0xea, 0x9e, 0x40, 0xa8, 0x88, 0x27, 0xb4, 0x5f, 0xc1, 0x03, 0xd7, 
  0xb9, 0x31, 0x07, 0x50, 0x4c, 0xa3, 0x5a, 0x3d, 0x09, 0x0b, 0xdb, 0x9d, 
  0x83, 0xac, 0x5d, 0xcf, 0xe9, 0x07, 0x18, 0x4d, 0xec, 0x0f, 0x81, 0x88, 
  0x4d, 0x6f, 0xd6, 0xde, 0xcf, 0x66, 0x8c, 0x98, 0x3e, 0x52, 0x98, 0xdb, 
  0xa4, 0x01, 0xa6, 0x0d, 0xc0, 0x0e, 0x88, 0xd1, 0x2d, 0xa4, 0x36, 0xf8, 
  0x9a, 0xf6, 0x17, 0x2e, 0xf9, 0xde, 0xf1, 0xb9, 0x58, 0x39, 0x33, 0xf4, 
  0x6c, 0x40, 0xd3, 0x23, 0xaf, 0x9f, 0x62, 0xa2, 0x0d, 0x6f, 0x2b, 0x48, 
  0x37, 0x03, 0x50, 0xcc, 0xb3, 0x2e, 0x95, 0x96, 0xf4, 0xcb, 0x9b, 0xd7, 
  0x0d, 0x6c, 0x3f, 0xe8, 0xad, 0x12, 0x55, 0x4c, 0xc4, 0xf9, 0xcd, 0x5d, 
  0x42, 0xd4, 0xed, 0x16, 0xb1, 0x0d, 0xf2, 0xcd, 0x3c, 0x48, 0xf8, 0xd8, 
  0x47, 0x25, 0x30, 0x3b, 0xf5, 0x00, 0xe6, 0x06, 0x6d, 0xd5, 0x38, 0xbf, 
  0xc0, 0xac, 0x2b, 0x44, 0xd2, 0x04, 0x20, 0x30, 0x4a, 0xcc, 0xf1, 0xef, 
  0xfe, 0xd7, 0x4f, 0x06, 0x6c, 0xb3, 0xfc, 0x19, 0x1c, 0x21, 0x36, 0xf3, 
  0x16, 0x9b, 0x4d, 0xa5, 0x39, 0x22, 0x19, 0x39, 0xf5, 0x23, 0xee, 0x15, 
  0x14, 0xd8, 0x50, 0x1e, 0x11, 0xdb, 0xfc, 0x04, 0xaa, 0x02, 0xbf, 0xda, 
  0x19, 0xea, 0xf8, 0xc0, 0xe9, 0x14, 0xb8, 0xf7, 0x22, 0x50, 0xfc, 0x00, 
  0x17, 0xc0, 0xcb, 0x11, 0x2c, 0xe1, 0xfc, 0x13, 0xd8, 0xef, 0xd5, 0x48, 
  0xe3, 0xf7, 0x96, 0xde, 0x26, 0x9f, 0x02, 0x2c, 0xf3, 0x04, 0x1e, 0x0e, 
  0xdb, 0xf5, 0x21, 0xbf, 0xd2, 0x57, 0xd1, 0x16, 0xfa, 0xd7, 0xdb, 0x29, 
  0xab, 0x2f, 0xfb, 0xd4, 0xf6, 0x93, 0x1d, 0x1a, 0x83, 0x81, 0x01, 0x33, 
  0x4c, 0xda, 0xc2, 0xaa, 0xcf, 0x57, 0xd4, 0xf1, 0x71, 0x23, 0xfd, 0xb4, 
  0xea, 0xc5, 0xcf, 0xd4, 0x01, 0xa5, 0x02, 0xfd, 0x1d, 0x2b, 0xd4, 0xde, 
  0x3b, 0xef, 0xfe, 0xa5, 0x77, 0xf2, 0x32, 0x56, 0xc9, 0x24, 0xf2, 0xdc, 
  0x83, 0xe3, 0xb9, 0x94, 0x20, 0xf7, 0xb0, 0x0c, 0xef, 0x37, 0x04, 0xfa, 
  0x0c, 0xe8, 0xef, 0xfe, 0xe3, 0xfe, 0x0f, 0x24, 0xc5, 0xc3, 0x2a, 0x17, 
  0xf2, 0x1d, 0xf6, 0x31, 0xc0, 0x31, 0x28, 0xd0, 0x07, 0x3d, 0x15, 0x36, 
  0x1a, 0x18, 0x55, 0x45, 0xd8, 0x24, 0x07, 0xe1, 0xba, 0x52, 0x0b, 0x05, 
  0x0b, 0x28, 0xcf, 0xe8, 0xf4, 0xaa, 0xd2, 0xc3, 0xe5, 0x0e, 0xe2, 0xea, 
  0xe8, 0x36, 0x44, 0xa1, 0x02, 0x30, 0xe1, 0x3d, 0x0d, 0x04, 0x1c, 0xcb, 
  0x01, 0x3f, 0xb2, 0x4b, 0xe1, 0x26, 0x23, 0x0d, 0x20, 0xcd, 0x48, 0xf7, 
  0x1c, 0x25, 0x25, 0x37, 0x4a, 0xf2, 0xfe, 0x2d, 0x1c, 0x30, 0x11, 0x27, 
  0xbb, 0xef, 0x36, 0xc0, 0xe8, 0xd8, 0xc8, 0x82, 0x3f, 0xb1, 0xb4, 0xc6, 
  0xc5, 0x53, 0xbb, 0xb2, 0x31, 0xdc, 0x7a, 0x12, 0xe2, 0x03, 0x32, 0x52, 
  0x68, 0xc8, 0x74, 0xf8, 0x22, 0x2a, 0xea, 0xd1, 0xee, 0x37, 0xd6, 0xd7, 
  0xfe, 0x4d, 0xd9, 0xf7, 0xc0, 0x22, 0x1e, 0xd8, 0x06, 0x14, 0xf7, 0x39, 
  0xed, 0xe7, 0xee, 0xd3, 0x19, 0xef, 0xbd, 0xcc, 0xe9, 0xdc, 0xb6, 0x0b, 
  0x19, 0x0a, 0x4b, 0x3b, 0xcc, 0xd7, 0xd1, 0x31, 0xdc, 0xc5, 0xf5, 0x34, 
  0xc7, 0x46, 0xfc, 0x00, 0xc9, 0xdd, 0xe7, 0x1b, 0x9f, 0x35, 0xc8, 0x3a, 
  0x9c, 0xd2, 0x42, 0xd3, 0x12, 0xca, 0xdd, 0x35, 0x0f, 0x48, 0xc7, 0xe5, 
  0x63, 0x88, 0x3d, 0xee, 0x09, 0xf3, 0x4e, 0xe8, 0xd3, 0x27, 0x76, 0xd6, 
  0x10, 0x12, 0xe5, 0xed, 0x34, 0xb5, 0xc1, 0x2b, 0x38, 0x1f, 0xcb, 0xd8, 
  0xf4, 0xa6, 0x01, 0xef, 0xc6, 0xc4, 0x0e, 0xcb, 0xee, 0xc2, 0xd0, 0xb2, 
  0x1c, 0x47, 0xf1, 0xc7, 0x40, 0xf3, 0xc6, 0x15, 0xec, 0x2e, 0x26, 0x32, 
  0x07, 0xd5, 0x47, 0xbd, 0xf0, 0x3a, 0xe7, 0x37, 0xfa, 0xc4, 0x8b, 0x20, 
  0x4f, 0xec, 0xcf, 0xd3, 0x23, 0xb9, 0x24, 0xf4, 0xab, 0x3e, 0x51, 0x1f, 
  0xae, 0x52, 0x01, 0xcd, 0x1f, 0xc4, 0xed, 0xcc, 0xd1, 0xd6, 0x36, 0x1d, 
  0x20, 0x16, 0xc2, 0xc3, 0x0a, 0xb2, 0x42, 0xf1, 0xd5, 0x42, 0xc8, 0x3a, 
  0x27, 0xd7, 0xfe, 0xc5, 0x0d, 0x21, 0x20, 0x0f, 0xf5, 0x35, 0xd2, 0x0d, 
  0x12, 0xfb, 0x46, 0x18, 0xe5, 0x23, 0xc1, 0xda, 0x61, 0x02, 0x2b, 0x05, 
  0xce, 0xe1, 0x0b, 0x0f, 0x38, 0x3e, 0xf5, 0xef, 0x04, 0x3c, 0xd6, 0x81, 
  0x2b, 0x46, 0x08, 0x1d, 0x05, 0xf6, 0x3c, 0xf5, 0xbe, 0x46, 0x06, 0xc6, 
  0x02, 0x1f, 0x88, 0x1b, 0x10, 0xf9, 0x4d, 0x00, 0x69, 0xfd, 0x8e, 0xd6, 
  0x14, 0x3a, 0xf1, 0xe3, 0xa3, 0x33, 0x2f, 0xc9, 0xf5, 0xbc, 0x4f, 0xf6, 
  0xe5, 0x38, 0xec, 0xe6, 0xc7, 0x8f, 0x98, 0x51, 0x60, 0x17, 0x0e, 0xe8, 
  0x3e, 0xf2, 0x5f, 0x0b, 0x9c, 0xed, 0xed, 0x84, 0xb4, 0xb8, 0x95, 0x35, 
  0x42, 0xec, 0x09, 0x8e, 0x1d, 0xd8, 0xc2, 0xe5, 0x89, 0xe5, 0xf0, 0xf7, 
  0x32, 0x44, 0x00, 0x53, 0xa4, 0xec, 0xf2, 0x46, 0x9d, 0xf3, 0xbc, 0xcc, 
  0x02, 0x29, 0x4e, 0xf5, 0x54, 0x58, 0xe2, 0x59, 0x2c, 0xc9, 0x4d, 0x06, 
  0xd9, 0xd7, 0xaf, 0xad, 0xc0, 0x89, 0x18, 0x9c, 0x64, 0xb8, 0x9e, 0xfc, 
  0xdd, 0x45, 0xac, 0xe9, 0xb9, 0x03, 0x2f, 0x26, 0xe6, 0x62, 0xfd, 0xf9, 
  0x4f, 0x09, 0x2a, 0x19, 0xf7, 0x64, 0x47, 0xf2, 0x23, 0x9e, 0xb6, 0xd8, 
  0xf3, 0xc5, 0x06, 0xbd, 0x4e, 0xaa, 0x9b, 0xeb, 0x5a, 0x14, 0xe3, 0xe8, 
  0x17, 0xb2, 0x05, 0x58, 0xe8, 0xce, 0xce, 0xff, 0x85, 0xf3, 0x10, 0xb0, 
  0x21, 0x15, 0xbc, 0xcc, 0x32, 0xe8, 0xbe, 0xea, 0x81, 0x1b, 0x12, 0x6b, 
  0xb3, 0x08, 0x17, 0x19, 0x43, 0x8c, 0xa7, 0xc3, 0x5e, 0xe8, 0x2a, 0x5b, 
  0xa9, 0xd0, 0x90, 0x8f, 0x39, 0x94, 0x3e, 0x90, 0xda, 0x9e, 0x1f, 0xa1, 
  0x56, 0xa6, 0x05, 0x58, 0xf1, 0x64, 0x95, 0x0f, 0xa4, 0xad, 0xfc, 0x24, 
  0xf9, 0xca, 0xd5, 0xb8, 0xfa, 0xa3, 0x4a, 0x54, 0x89, 0xf8, 0xaa, 0x43, 
  0x64, 0xe6, 0xe2, 0x2d, 0xc0, 0x29, 0xc1, 0x15, 0x3b, 0xea, 0x1a, 0x5a, 
  0xb8, 0x49, 0xdf, 0x95, 0x9d, 0x53, 0xb8, 0x5d, 0xa7, 0xf4, 0xa5, 0x11, 
  0xb1, 0x37, 0x38, 0xa9, 0x36, 0x87, 0xdd, 0x89, 0x38, 0x3d, 0x69, 0x92, 
  0xcc, 0xa6, 0xdb, 0xc5, 0x63, 0x94, 0x0d, 0xa0, 0xac, 0xcb, 0x22, 0x1a, 
  0xf8, 0x28, 0xef, 0x02, 0xe5, 0x7f, 0xda, 0x04, 0xf6, 0x16, 0x09, 0x36, 
  0x28, 0x38, 0xea, 0x3d, 0xb0, 0xc1, 0x1b, 0x2d, 0x26, 0xd6, 0xfe, 0x59, 
  0x05, 0x63, 0xca, 0xf5, 0xe2, 0xff, 0xec, 0x07, 0x57, 0x09, 0xdf, 0x37, 
  0x0d, 0xf4, 0xe7, 0xef, 0x2a, 0xf4, 0x5b, 0xf3, 0xed, 0xfd, 0xce, 0xdd, 
  0xef, 0xed, 0x12, 0xf6, 0x11, 0x22, 0xfc, 0x5f, 0xe2, 0x0b, 0xf1, 0xe4, 
  0x36, 0x2a, 0x13, 0x20, 0x16, 0x55, 0xe4, 0xcb, 0xfb, 0xe0, 0xe7, 0x20, 
  0x68, 0x0e, 0x8e, 0x33, 0xbe, 0xf4, 0xf7, 0xe5, 0x2e, 0xfc, 0x1d, 0x0c, 
  0xd4, 0x28, 0xd9, 0xd8, 0x12, 0x06, 0x0d, 0x18, 0x46, 0x37, 0x03, 0x58, 
  0xb8, 0xd0, 0x2a, 0x47, 0x23, 0xfd, 0x4d, 0x34, 0xe8, 0x50, 0xf6, 0xe0, 
  0xcd, 0x03, 0x25, 0xf1, 0x6b, 0x0b, 0xe2, 0x18, 0xac, 0xef, 0xc8, 0x00, 
  0x1d, 0x2f, 0x13, 0xfc, 0xf2, 0x4d, 0x29, 0xcf, 0xd7, 0xee, 0x11, 0xef, 
  0x6b, 0x4a, 0xb1, 0x1d, 0x07, 0x25, 0x33, 0x28, 0xe1, 0xdf, 0x1d, 0x4e, 
  0xdb, 0x2d, 0xc7, 0xd8, 0xf8, 0xfa, 0x0d, 0x3c, 0x23, 0xcd, 0xab, 0x40, 
  0xf2, 0xe4, 0xf5, 0x40, 0xbe, 0x0b, 0x30, 0xf7, 0xbd, 0x29, 0x20, 0xed, 
  0x11, 0x1a, 0xfe, 0x4b, 0x29, 0x46, 0x0b, 0x3e, 0xfd, 0x03, 0x02, 0x11, 
  0xf5, 0x0a, 0x0e, 0xf9, 0xf3, 0x32, 0x08, 0xe5, 0xc7, 0x37, 0xda, 0x24, 
  0x0f, 0x1f, 0xe5, 0x52, 0x0d, 0xfd, 0x14, 0xde, 0x25, 0x3a, 0x29, 0x21, 
  0x1f, 0x41, 0x27, 0xec, 0x28, 0xce, 0x05, 0x2a, 0x2c, 0x00, 0xc3, 0x40, 
  0x01, 0xee, 0x20, 0xd5, 0xf5, 0x20, 0x02, 0x29, 0x03, 0x71, 0x24, 0xca, 
  0x05, 0xdf, 0xf7, 0x37, 0x2b, 0xe6, 0xf9, 0x34, 0xd2, 0x29, 0xf2, 0x1b, 
  0x06, 0x01, 0xed, 0x37, 0xeb, 0x2a, 0xf7, 0xec, 0xea, 0xe2, 0xe3, 0x20, 
  0xe4, 0xed, 0x05, 0xe2, 0x3f, 0x0d, 0xcc, 0x0c, 0xf3, 0xe5, 0xf5, 0x06, 
  0xda, 0x00, 0xee, 0xc3, 0xf7, 0x28, 0xe4, 0xf4, 0xd9, 0xfe, 0x18, 0xbf, 
  0xdf, 0xeb, 0x0e, 0xd5, 0x06, 0xf9, 0xf4, 0x26, 0x24, 0x25, 0xd3, 0xf2, 
  0x4b, 0xd9, 0xe7, 0x19, 0xe9, 0xfc, 0x35, 0xa2, 0x11, 0x00, 0x0b, 0x06, 
  0x4a, 0xb1, 0x19, 0x00, 0xfd, 0x9c, 0x3c, 0x12, 0x20, 0xee, 0x20, 0xfc, 
  0x06, 0x1e, 0x0f, 0xfc, 0x6f, 0x51, 0x31, 0xc5, 0x27, 0xe1, 0x14, 0x11, 
  0x8c, 0x08, 0x32, 0x1b, 0xc4, 0xbd, 0x32, 0x40, 0xbd, 0x93, 0xe8, 0xdf, 
  0x0d, 0xce, 0xa5, 0xc6, 0xd5, 0x42, 0x97, 0xfc, 0x3f, 0xca, 0xd2, 0xdc, 
  0xca, 0xf6, 0xe1, 0x00, 0xec, 0xfc, 0x46, 0xdc, 0xe8, 0x06, 0x27, 0x00, 
  0x17, 0x1d, 0x01, 0xf0, 0x41, 0xe2, 0x13, 0x4b, 0xfb, 0x27, 0x28, 0xd8, 
  0x03, 0x3f, 0x51, 0xf8, 0x0b, 0x3e, 0xeb, 0x15, 0x1d, 0xba, 0x39, 0x22, 
  0x12, 0xff, 0x29, 0x41, 0x0d, 0x14, 0x0e, 0x0f, 0x39, 0xe1, 0xaa, 0xe3, 
  0x5c, 0x2a, 0x52, 0xef, 0x10, 0x25, 0x9b, 0xe4, 0x81, 0xe4, 0xe9, 0xbb, 
  0xd3, 0xee, 0xda, 0x1b, 0xbc, 0xd5, 0xf5, 0xf5, 0xcd, 0xb1, 0xa3, 0x06, 
  0xdc, 0x36, 0x94, 0x27, 0x0e, 0xcb, 0xf2, 0xb8, 0xe4, 0x2f, 0xf5, 0x18, 
  0xff, 0xfd, 0xf4, 0xe7, 0xed, 0x0b, 0x18, 0xdf, 0xce, 0x1f, 0xeb, 0x0d, 
  0xee, 0x2e, 0xb9, 0x25, 0x17, 0xe7, 0xf0, 0x1f, 0xf3, 0x0f, 0x34, 0x31, 
  0x28, 0x23, 0x36, 0xf3, 0x33, 0xe1, 0xbb, 0xea, 0x04, 0xb3, 0xe1, 0x11, 
  0x02, 0x35, 0xff, 0xc7, 0xb7, 0x56, 0xb9, 0xd5, 0x1d, 0x34, 0x0c, 0xc6, 
  0xcb, 0x33, 0xf1, 0xfe, 0xaf, 0x03, 0x27, 0x11, 0xd9, 0x0f, 0xdb, 0x06, 
  0x09, 0xbe, 0x1a, 0x8e, 0x36, 0x48, 0xfb, 0xe6, 0x25, 0x0f, 0x0f, 0x16, 
  0x41, 0xae, 0x1c, 0x36, 0x02, 0xeb, 0x3d, 0x1b, 0xbb, 0xed, 0x29, 0x81, 
  0xf8, 0x0d, 0x15, 0xf7, 0x18, 0xe5, 0xd5, 0xcb, 0xc6, 0xab, 0x54, 0x04, 
  0xef, 0xfa, 0x06, 0x02, 0xbf, 0xd7, 0x4e, 0xa3, 0xed, 0x27, 0xd1, 0x0b, 
  0xf6, 0x0e, 0xfb, 0xfa, 0x2b, 0xa9, 0x69, 0x0d, 0xc9, 0xbb, 0x2b, 0xfe, 
  0xca, 0xc6, 0x32, 0x9e, 0x43, 0x3d, 0x26, 0xf3, 0x33, 0xf6, 0xee, 0xd1, 
  0xf1, 0xbe, 0x28, 0x1b, 0x16, 0x04, 0x07, 0x28, 0xc0, 0xe9, 0x06, 0xd6, 
  0x78, 0x4f, 0x18, 0x15, 0xdd, 0x28, 0xa0, 0x1b, 0xf2, 0xd5, 0x6d, 0xfc, 
  0xe6, 0xd9, 0xf4, 0x24, 0xe0, 0xf5, 0x46, 0x9b, 0x2e, 0x1f, 0xcb, 0xb8, 
  0x30, 0xfc, 0xa7, 0xf9, 0x07, 0xaa, 0x44, 0x4a, 0x0b, 0x12, 0xfb, 0x23, 
  0xc1, 0xd4, 0x0c, 0xaf, 0x6e, 0xf0, 0xff, 0xf7, 0x07, 0xdf, 0xa2, 0xe9, 
  0x20, 0x9e, 0x37, 0x22, 0x31, 0xd9, 0xf2, 0xf8, 0x91, 0xaf, 0x1e, 0xf7, 
  0x17, 0xe7, 0x21, 0xd8, 0x1e, 0x23, 0xf7, 0xeb, 0x13, 0xcc, 0xf9, 0x52, 
  0xcd, 0xed, 0x30, 0x38, 0xe7, 0xe2, 0x21, 0xa5, 0xec, 0x3d, 0xcb, 0xda, 
  0xe9, 0x3f, 0x99, 0x41, 0x26, 0xcc, 0x53, 0xec, 0x36, 0x06, 0x5b, 0xd4, 
  0xca, 0x93, 0x1b, 0xd2, 0xd3, 0x74, 0x2d, 0xdd, 0x04, 0xd7, 0xdc, 0xed, 
  0x6d, 0x8e, 0x12, 0x17, 0x38, 0xe9, 0xef, 0x26, 0xbb, 0x07, 0xf2, 0xe0, 
  0x11, 0x52, 0xea, 0xf3, 0x39, 0x42, 0xfb, 0xb8, 0x64, 0xf2, 0xe4, 0x0b, 
  0x18, 0xd1, 0x18, 0xd8, 0xc0, 0x3d, 0x52, 0xe1, 0x04, 0x2d, 0x2b, 0x29, 
  0x17, 0x19, 0xca, 0x01, 0x39, 0xfa, 0x2b, 0x33, 0xd5, 0x18, 0x42, 0x17, 
  0x1e, 0xf5, 0x09, 0xd4, 0x0f, 0x3e, 0x39, 0x0c, 0x3d, 0xf8, 0x1f, 0x38, 
  0xda, 0xff, 0x00, 0x00, 0x8a, 0xf3, 0xff, 0xff, 0x04, 0x00, 0x00, 0x00, 
  0xfc, 0x00, 0x00, 0x00, 0xb8, 0x78, 0xda, 0x3e, 0x11, 0xa6, 0x88, 0xbd, 
  0x9d, 0x65, 0xa7, 0x3e, 0xb1, 0x5b, 0x42, 0x3e, 0x82, 0x97, 0x60, 0xbe, 
  0xec, 0xe1, 0xd8, 0xbe, 0x9c, 0x5d, 0xf5, 0x3e, 0x61, 0x14, 0xa5, 0xbe, 
  0x4b, 0x04, 0xe9, 0xbe, 0x77, 0x4b, 0x2b, 0xbf, 0x0f, 0xe1, 0xcb, 0x3e, 
  0xb2, 0xc1, 0xd8, 0xbe, 0xd6, 0x79, 0xcd, 0xbe, 0x9c, 0x9e, 0xf6, 0x3d, 
  0x6c, 0x14, 0x3c, 0x3e, 0xb5, 0xea, 0xf0, 0x3e, 0xea, 0xdd, 0xab, 0x3e, 
  0x46, 0xec, 0xbf, 0xbe, 0x76, 0x9b, 0x2f, 0x3d, 0x07, 0x7c, 0x71, 0x3e, 
  0x34, 0x2f, 0x08, 0x3f, 0x1d, 0x10, 0x4f, 0x3e, 0x19, 0x61, 0x12, 0x3f, 
  0xa8, 0x2d, 0xf3, 0x3e, 0x64, 0x05, 0xc4, 0xbe, 0xcc, 0xfe, 0xac, 0xbe, 
  0xb7, 0xf5, 0xb2, 0xbe, 0x80, 0x41, 0x8a, 0xbe, 0x48, 0x60, 0x0c, 0x3f, 
  0xc0, 0x99, 0x2a, 0xbe, 0xb5, 0xc6, 0x2c, 0x3f, 0xbf, 0x70, 0xc4, 0x3c, 
  0x0a, 0xd5, 0xb2, 0x3e, 0xae, 0x2e, 0x26, 0xbe, 0x18, 0xf1, 0x4b, 0x3e, 
  0x05, 0x20, 0x67, 0x3e, 0x73, 0xa6, 0xff, 0xbe, 0x5b, 0x59, 0xaf, 0xbe, 
  0x5f, 0x03, 0xf5, 0x3e, 0x26, 0x4b, 0xe0, 0xbc, 0x46, 0x90, 0x2b, 0x3f, 
  0xc8, 0x7f, 0x9f, 0x3e, 0xb9, 0xe4, 0x09, 0xbe, 0xb5, 0xd7, 0x48, 0x3d, 
  0x5d, 0x36, 0xba, 0xbe, 0xca, 0xd6, 0xa5, 0x3e, 0x08, 0xc0, 0x38, 0x3e, 
  0x55, 0xce, 0x76, 0x3d, 0x47, 0x47, 0x80, 0x3d, 0x79, 0xc8, 0xc1, 0x3e, 
  0xa0, 0xec, 0x09, 0x3f, 0xd7, 0x92, 0xcc, 0xbd, 0xa0, 0x73, 0xf7, 0xbe, 
  0x9b, 0xda, 0x04, 0x3f, 0xcd, 0x57, 0x0f, 0x3f, 0xf4, 0x1e, 0xb3, 0xbe, 
  0x9b, 0x5a, 0xa0, 0x3d, 0x99, 0x10, 0xfc, 0xbe, 0xe1, 0x6c, 0x68, 0xbe, 
  0x0f, 0x88, 0x62, 0xbd, 0xff, 0x30, 0x2b, 0x3e, 0xad, 0xc5, 0x15, 0x3e, 
  0x3e, 0x2e, 0x0b, 0x3d, 0x92, 0xf4, 0xff, 0xff, 0x04, 0x00, 0x00, 0x00, 
  0x90, 0x01, 0x00, 0x00, 0xb0, 0x7a, 0x4a, 0x3e, 0x13, 0x8d, 0x94, 0xbe, 
  0x3c, 0x9e, 0xc7, 0xbe, 0x3f, 0xce, 0x8a, 0xbe, 0x4a, 0xe0, 0xc6, 0xbe, 
  0x6e, 0xab, 0x3d, 0xbc, 0x22, 0xf4, 0xa9, 0x3d, 0x3c, 0x68, 0x85, 0x3d, 
  0x1d, 0xa8, 0x6c, 0xbe, 0xa0, 0x32, 0x2a, 0x3d, 0xc8, 0xb7, 0x76, 0x3e, 
  0x50, 0x45, 0xb5, 0x3d, 0xbf, 0x14, 0xbf, 0x3e, 0x4d, 0x2a, 0xe4, 0x3e, 
  0xfe, 0xbc, 0x4a, 0x3e, 0x72, 0xb5, 0x0b, 0x3e, 0x3a, 0x9b, 0xab, 0x3e, 
  0xbe, 0xc7, 0xa9, 0x3e, 0xa2, 0xfc, 0xb2, 0x3e, 0x5b, 0xe2, 0x00, 0x3e, 
  0xc6, 0x09, 0x3f, 0x3e, 0xe7, 0x42, 0x06, 0x3f, 0xaf, 0xb5, 0xf1, 0x3e, 
  0x83, 0x72, 0x2c, 0xbe, 0x4a, 0x8a, 0xbe, 0xbd, 0xac, 0x75, 0xa9, 0xbe, 
  0x97, 0xa6, 0xfb, 0xbd, 0x19, 0xcb, 0x33, 0x3e, 0xaa, 0x2c, 0x9d, 0xbe, 
  0xe4, 0x6d, 0x3c, 0xbc, 0x25, 0xf3, 0x6c, 0x3e, 0xa0, 0xc1, 0xbb, 0xbd, 
  0xff, 0x4d, 0x56, 0xbe, 0x56, 0x62, 0xf5, 0xbd, 0xf4, 0xcf, 0x12, 0xbe, 
  0xf3, 0xde, 0xaa, 0xbe, 0x7c, 0x0f, 0x34, 0x3d, 0x62, 0x86, 0x99, 0xbe, 
  0x0a, 0x3c, 0x62, 0xbe, 0xcb, 0x6a, 0xbb, 0xbe, 0x30, 0x6c, 0x95, 0xbe, 
  0x5e, 0xec, 0xa9, 0x3c, 0xec, 0x8c, 0x89, 0x3e, 0xda, 0x7c, 0x84, 0xbd, 
  0x5b, 0x0b, 0xd0, 0x3e, 0x05, 0x36, 0xaf, 0x3e, 0x3e, 0x88, 0x1f, 0x3d, 
  0x61, 0x44, 0x78, 0x3e, 0x6e, 0x5d, 0x2e, 0xbd, 0x14, 0xc1, 0xa8, 0x3e, 
  0x39, 0x8a, 0x1b, 0x3d, 0x18, 0x53, 0xe3, 0x3d, 0x26, 0x70, 0x97, 0xbe, 
  0x31, 0x3f, 0x9e, 0xbe, 0xa5, 0x44, 0x0c, 0xbe, 0xb4, 0xe0, 0x09, 0x3e, 
  0xc4, 0x94, 0xc1, 0x3d, 0x96, 0x08, 0xac, 0xbe, 0x12, 0x6f, 0x9c, 0xbe, 
  0x81, 0x40, 0x33, 0xbe, 0x4a, 0x52, 0x7c, 0x3e, 0x71, 0x31, 0x92, 0xbe, 
  0xd4, 0x50, 0xdd, 0x3b, 0xa8, 0xbd, 0x5e, 0x3e, 0x29, 0x40, 0x07, 0x3e, 
  0x81, 0xae, 0xda, 0x3d, 0x09, 0x1f, 0xda, 0x3c, 0x80, 0xbb, 0xef, 0x3e, 
  0xb0, 0xeb, 0xc8, 0x3e, 0x46, 0x8c, 0xb9, 0x3e, 0xc7, 0x3f, 0x94, 0xbe, 
  0x53, 0xcc, 0x90, 0xbe, 0x7c, 0x4c, 0x15, 0xbd, 0xe5, 0x4e, 0x87, 0xbe, 
  0x7c, 0x18, 0x45, 0xbe, 0x08, 0xf4, 0x12, 0xbe, 0x15, 0x90, 0x11, 0x3a, 
  0x52, 0x5d, 0x4e, 0x3e, 0x36, 0x11, 0xab, 0x3e, 0x97, 0xa9, 0xb0, 0x3e, 
  0x23, 0x15, 0xca, 0xbc, 0xc0, 0xdd, 0x46, 0xbd, 0x03, 0x8b, 0x15, 0xbd, 
  0x10, 0xf5, 0x9f, 0x3c, 0x58, 0x76, 0xa1, 0xbe, 0x7a, 0x4c, 0xc2, 0xbe, 
  0x8f, 0xdf, 0x34, 0x3e, 0x6f, 0x6f, 0x5d, 0xbc, 0xc3, 0x30, 0x8b, 0x3d, 
  0x96, 0xff, 0xaa, 0xbd, 0x23, 0x42, 0x93, 0x3d, 0xb8, 0x5c, 0xb3, 0xbe, 
  0x08, 0x73, 0x74, 0xbe, 0xb9, 0xb5, 0xe8, 0xbc, 0x70, 0xc5, 0xfc, 0x3c, 
  0x9b, 0x6b, 0xed, 0xbe, 0x03, 0xf8, 0xe2, 0x3d, 0xd2, 0xbd, 0xaf, 0xbe, 
  0xd0, 0xf4, 0x17, 0xbd, 0x15, 0x03, 0xc9, 0xbe, 0x2e, 0xf6, 0xff, 0xff, 
  0x04, 0x00, 0x00, 0x00, 0xd0, 0x07, 0x00, 0x00, 0x56, 0xd0, 0x97, 0x3e, 
  0x8b, 0x08, 0x34, 0xbe, 0x37, 0x02, 0xe0, 0x3d, 0x5a, 0x0a, 0xab, 0xbd, 
  0xf9, 0xda, 0xde, 0xbd, 0x6f, 0x4f, 0x45, 0x3e, 0xec, 0x4c, 0xfa, 0x3d, 
  0xfe, 0x97, 0xa0, 0x3e, 0xe5, 0x0e, 0x24, 0x3e, 0xca, 0x29, 0x0d, 0xbe, 
  0xa2, 0x2e, 0xe6, 0x3d, 0xf0, 0x67, 0x6b, 0xbe, 0x87, 0xd8, 0x40, 0x3d, 
  0xcf, 0xc1, 0xa7, 0xbd, 0xde, 0x3b, 0xb0, 0x3d, 0x33, 0x77, 0xee, 0x3d, 
  0x86, 0x5a, 0x58, 0xbe, 0xcb, 0xb7, 0xf7, 0x3d, 0x07, 0x22, 0x84, 0x3c, 
  0xba, 0x6f, 0x0d, 0xbe, 0xdf, 0xc8, 0x8b, 0x3c, 0x59, 0xa7, 0x6f, 0xbe, 
  0x1d, 0x77, 0x88, 0x3d, 0x1d, 0x2c, 0xcb, 0xbd, 0x3e, 0xfe, 0x26, 0x3e, 
  0x38, 0x0c, 0xd2, 0xbd, 0xd7, 0x88, 0x8e, 0xbe, 0xff, 0x1d, 0xb6, 0xbd, 
  0x23, 0x41, 0x6f, 0xbd, 0xad, 0x10, 0x47, 0xbe, 0xcb, 0x67, 0x68, 0x3e, 
  0xe1, 0x8a, 0x64, 0xbe, 0x19, 0x74, 0x2e, 0x3b, 0xc3, 0xa6, 0x63, 0x3e, 
  0x66, 0xc3, 0xfe, 0xbc, 0xca, 0xb2, 0x20, 0x3e, 0xd7, 0x1e, 0x0f, 0xbe, 
  0xfe, 0x75, 0x2d, 0xbd, 0x59, 0x1e, 0xaa, 0xbd, 0x08, 0x98, 0x5d, 0xbe, 
  0x73, 0x35, 0x0d, 0x3d, 0x82, 0x9a, 0x5d, 0xbe, 0xa7, 0x7f, 0x3a, 0x3e, 
  0x7f, 0x18, 0x81, 0x3e, 0x25, 0x23, 0x56, 0xbd, 0xb4, 0xf6, 0xd3, 0xbd, 
  0x1d, 0xf2, 0x6f, 0xbd, 0x52, 0x91, 0x50, 0x3e, 0x5e, 0x5b, 0x8c, 0xbc, 
  0x8c, 0x0c, 0x5d, 0xbe, 0xb0, 0x09, 0xca, 0x3d, 0x18, 0x4d, 0x96, 0x3d, 
  0x6f, 0x95, 0xb7, 0x3e, 0x1c, 0x2c, 0x09, 0x3e, 0xfe, 0x7e, 0x84, 0x3e, 
  0x2b, 0x25, 0x76, 0x3e, 0xc1, 0xf9, 0x63, 0xbd, 0x8a, 0x44, 0xe4, 0x3d, 
  0xb8, 0x57, 0xd4, 0x3d, 0x3a, 0xe5, 0x8d, 0x3e, 0x7d, 0x15, 0xbd, 0xbc, 
  0x4d, 0x00, 0x8a, 0xbd, 0xa4, 0x7c, 0xc3, 0xbd, 0x63, 0xb4, 0x9c, 0x3d, 
  0x99, 0x66, 0x59, 0x3e, 0x0d, 0x61, 0xfe, 0xbd, 0x76, 0x8b, 0x0d, 0xbe, 
  0xaa, 0x76, 0x3a, 0x3e, 0x94, 0x9e, 0xb7, 0xbc, 0x3f, 0xd3, 0x59, 0x3e, 
  0x73, 0xec, 0xa0, 0x3d, 0xf0, 0xd7, 0x4b, 0xbe, 0xfd, 0xc8, 0x80, 0x3d, 
  0xa7, 0xdd, 0xef, 0x3d, 0x55, 0x68, 0xb6, 0xbd, 0x20, 0xee, 0x5c, 0x3d, 
  0x1f, 0x97, 0x05, 0xbc, 0x88, 0x59, 0x75, 0x3e, 0xad, 0xe4, 0xcd, 0xbd, 
  0x42, 0x73, 0x12, 0x3e, 0x48, 0x00, 0xce, 0xbc, 0xb3, 0xee, 0x1c, 0x3e, 
  0x6a, 0x42, 0xb5, 0xbd, 0x56, 0xb7, 0x41, 0x3e, 0x9b, 0x5c, 0x7e, 0xbe, 
  0x6d, 0x22, 0x12, 0xba, 0x3a, 0xdb, 0xca, 0x3d, 0xef, 0x8e, 0x9e, 0x3e, 
  0xbf, 0xc9, 0x8e, 0x3e, 0x7b, 0xa1, 0x19, 0x3e, 0x32, 0xa0, 0x6d, 0xbe, 
  0xcc, 0xa5, 0x80, 0xbe, 0xbd, 0x35, 0xa0, 0xbd, 0x62, 0xd5, 0x18, 0xbd, 
  0xf2, 0x33, 0x9e, 0xbe, 0xce, 0x02, 0xb4, 0x3d, 0xe5, 0x5c, 0x36, 0xbe, 
  0x2a, 0xa0, 0x23, 0xbd, 0x6b, 0x8f, 0xd3, 0xbd, 0xb1, 0xf5, 0x26, 0xbe, 
  0xf1, 0x17, 0x3f, 0x3e, 0x59, 0x02, 0x88, 0x3d, 0xd5, 0x81, 0x04, 0x3e, 
  0xc9, 0x39, 0x95, 0x3e, 0xdf, 0xa3, 0xee, 0xbc, 0x09, 0xbc, 0xa6, 0x3e, 
  0x7e, 0x50, 0x52, 0xbe, 0x2b, 0x48, 0x5d, 0xbe, 0x40, 0x95, 0x59, 0x3e, 
  0x5a, 0x40, 0xf2, 0xbd, 0x97, 0x3a, 0x21, 0x3e, 0x5e, 0xb3, 0xb6, 0xbb, 
  0xc5, 0x19, 0x75, 0x3c, 0x7b, 0x63, 0x73, 0x3c, 0x3f, 0xf9, 0x0b, 0xbe, 
  0xd1, 0x67, 0xbe, 0x3d, 0xae, 0x50, 0x51, 0xbd, 0x6d, 0x58, 0x3c, 0x3e, 
  0xf0, 0x13, 0x4e, 0x3e, 0xa8, 0x45, 0x6f, 0xbd, 0x40, 0x71, 0xd0, 0x3d, 
  0xd8, 0x25, 0xbe, 0x3c, 0x3c, 0x08, 0x1a, 0x3c, 0xd4, 0x57, 0x2e, 0x3e, 
  0x2d, 0xe5, 0x88, 0xbd, 0x66, 0xf0, 0x92, 0x3e, 0x98, 0x30, 0x66, 0xbe, 
  0x1d, 0xd0, 0x43, 0xbe, 0xf5, 0x75, 0xd3, 0x3c, 0x34, 0x5c, 0x5b, 0x3e, 
  0x2a, 0x9a, 0x95, 0x3e, 0x5b, 0xf1, 0x09, 0xbe, 0x86, 0xac, 0xc1, 0xbd, 
  0xfe, 0x70, 0xd0, 0x3d, 0xe6, 0xe1, 0x6d, 0xbe, 0x01, 0x90, 0x9b, 0xbd, 
  0x82, 0x9a, 0x82, 0x3d, 0xc6, 0xbb, 0x94, 0xbd, 0xec, 0x58, 0x64, 0x3e, 
  0xd3, 0x4e, 0x57, 0x3d, 0x72, 0x2e, 0x59, 0x3e, 0xed, 0x25, 0x54, 0xbe, 
  0x52, 0xe7, 0x20, 0x3e, 0x66, 0xb6, 0x44, 0xbd, 0xa2, 0x62, 0x6f, 0xbe, 
  0x8e, 0xa1, 0xdc, 0xbc, 0xaf, 0xe4, 0x5e, 0xbe, 0x14, 0x24, 0x1c, 0x3e, 
  0xd0, 0x71, 0x55, 0xbe, 0x18, 0x61, 0x9d, 0xbd, 0x89, 0x2b, 0xfa, 0x3c, 
  0x4a, 0x46, 0xf9, 0x3d, 0x54, 0xf5, 0xd9, 0x3d, 0x9c, 0xbc, 0xaf, 0x3d, 
  0x76, 0xa9, 0x41, 0x3e, 0x1f, 0x65, 0x4d, 0xbd, 0x7b, 0x22, 0x6a, 0x3c, 
  0x2c, 0xc8, 0x98, 0xbd, 0x57, 0xa7, 0xd1, 0x3d, 0x47, 0x19, 0x1b, 0x3e, 
  0xfb, 0x59, 0xd1, 0xbd, 0xa4, 0x50, 0x90, 0x3e, 0x6e, 0xed, 0x13, 0xbe, 
  0x4d, 0xa6, 0xeb, 0x3d, 0x24, 0xa2, 0xf0, 0xbb, 0x85, 0xda, 0x11, 0x3e, 
  0x37, 0x08, 0xac, 0x3d, 0xf9, 0x77, 0xab, 0xbe, 0xbc, 0x89, 0x1f, 0x3b, 
  0x42, 0x42, 0x7c, 0x3d, 0x95, 0x36, 0x8d, 0x3b, 0x55, 0x7a, 0x53, 0x3e, 
  0x9f, 0xfe, 0x02, 0x3d, 0x7c, 0x32, 0x13, 0x3e, 0x75, 0x01, 0x5f, 0x3e, 
  0x2f, 0xb7, 0x44, 0xbe, 0x06, 0x7b, 0x04, 0x3e, 0x30, 0x31, 0x6b, 0xbd, 
  0xca, 0x40, 0xd9, 0x3c, 0xbe, 0xc4, 0x60, 0xbe, 0x05, 0x4e, 0x1d, 0x3d, 
  0xbf, 0x98, 0x15, 0x3d, 0x5a, 0x1b, 0x82, 0xbe, 0x95, 0x2d, 0xc5, 0xbd, 
  0xe6, 0x83, 0x3f, 0xbe, 0xf5, 0xbd, 0xab, 0xbd, 0xfa, 0xfd, 0xb1, 0xbc, 
  0x26, 0x58, 0x9b, 0x3c, 0x5f, 0xbb, 0x45, 0xbc, 0x11, 0x5b, 0x50, 0x3e, 
  0xd5, 0x67, 0x85, 0xbe, 0x9a, 0x4d, 0x2d, 0xbe, 0x56, 0x05, 0x29, 0xbe, 
  0xdf, 0x72, 0x59, 0xbe, 0x06, 0x9b, 0xe5, 0xbd, 0x52, 0xfb, 0xe1, 0xbd, 
  0xb0, 0x8e, 0xc4, 0xbd, 0x2f, 0xac, 0x3f, 0x3e, 0x5c, 0x79, 0x8c, 0x3d, 
  0x81, 0xa8, 0x7e, 0x3d, 0x75, 0x6d, 0x31, 0x3e, 0x0a, 0x23, 0xa0, 0x3d, 
  0x9b, 0x34, 0x2b, 0x3e, 0xa1, 0x8f, 0xfb, 0xbd, 0x98, 0x0d, 0xf7, 0x3d, 
  0xa7, 0x7e, 0x4f, 0x3e, 0xa3, 0x06, 0x1c, 0x3d, 0xe3, 0xae, 0xc2, 0x3d, 
  0xa9, 0x1a, 0x36, 0x3e, 0x81, 0xaa, 0x5b, 0xbb, 0xfb, 0x2b, 0x9d, 0x3e, 
  0xde, 0xd9, 0x93, 0xbe, 0xc3, 0xac, 0xac, 0x3e, 0x41, 0x8a, 0xc4, 0x3d, 
  0xbc, 0xb1, 0x52, 0xbe, 0xe8, 0x55, 0x73, 0x3e, 0x6d, 0x0b, 0x03, 0x3e, 
  0x0e, 0xe1, 0x01, 0x3e, 0x5e, 0x2c, 0x02, 0x3e, 0xc7, 0x2f, 0xa7, 0xbd, 
  0x87, 0x34, 0xeb, 0x3d, 0xe6, 0x92, 0x25, 0xbe, 0x74, 0x2f, 0x57, 0xbe, 
  0x26, 0xf1, 0x8f, 0xbd, 0x0f, 0x0c, 0x43, 0xbe, 0xa4, 0x27, 0x6a, 0x3e, 
  0x2b, 0x78, 0x35, 0xbd, 0xd5, 0x3b, 0xa2, 0x3e, 0x59, 0x77, 0x80, 0x3e, 
  0x62, 0xcd, 0xee, 0x3c, 0xb1, 0x48, 0x82, 0xbd, 0x01, 0xe5, 0xf4, 0x3c, 
  0xc9, 0xd7, 0xba, 0x3c, 0xc0, 0x7b, 0x46, 0x3d, 0x91, 0x7f, 0x92, 0x3e, 
  0xe7, 0x8e, 0x22, 0xbe, 0xa2, 0x6d, 0x84, 0x3e, 0x49, 0x38, 0xf5, 0x3d, 
  0x35, 0xec, 0x95, 0x3d, 0x34, 0x32, 0x5a, 0x3d, 0xe5, 0x2b, 0x4c, 0x3e, 
  0xe8, 0xe9, 0x74, 0xbd, 0x19, 0xb7, 0x70, 0x3e, 0x21, 0xcb, 0x19, 0xbc, 
  0x4f, 0xce, 0xf8, 0xbd, 0xa9, 0x3e, 0x75, 0xbd, 0x25, 0xe8, 0x07, 0x3e, 
  0x6c, 0x27, 0x2d, 0xbe, 0x2b, 0x97, 0xf0, 0x3d, 0xcd, 0x06, 0x30, 0x3e, 
  0x45, 0xa8, 0xfd, 0xbd, 0xf7, 0x18, 0x43, 0xbe, 0xa9, 0x94, 0xa4, 0xbb, 
  0xe2, 0x1e, 0x31, 0xbe, 0x10, 0xa2, 0x94, 0x3e, 0x2a, 0x72, 0x3d, 0x3e, 
  0x96, 0xb1, 0x14, 0x3e, 0x21, 0xc2, 0xa5, 0x3e, 0x3f, 0xaf, 0xad, 0xbc, 
  0x53, 0x48, 0xf7, 0xbd, 0x59, 0xd2, 0xa6, 0xbd, 0xab, 0xa1, 0x62, 0x3e, 
  0xd0, 0x7e, 0x62, 0xbe, 0x27, 0x2b, 0x13, 0x3c, 0xc9, 0xd6, 0x00, 0x3c, 
  0xdf, 0xa4, 0xf0, 0xbd, 0x4e, 0x4e, 0x83, 0x3e, 0xa3, 0x6b, 0x75, 0x3d, 
  0xab, 0x7f, 0x95, 0xbd, 0xb1, 0xb1, 0x6c, 0x3e, 0x82, 0x34, 0x5f, 0xbd, 
  0x35, 0x87, 0x26, 0xbe, 0x78, 0xbe, 0x9f, 0xbc, 0xac, 0xa3, 0x6c, 0x3e, 
  0x80, 0x66, 0x31, 0x3d, 0x0f, 0xb4, 0x31, 0x3e, 0x52, 0x2a, 0x84, 0x3e, 
  0x84, 0xe3, 0x8d, 0x3e, 0xf8, 0x1e, 0x9c, 0x3e, 0xff, 0x10, 0x39, 0xbe, 
  0x15, 0x7d, 0x01, 0x3e, 0x39, 0x1f, 0x9e, 0x3e, 0x5b, 0xdd, 0x2c, 0x3e, 
  0x8b, 0x98, 0x49, 0xbd, 0x6a, 0x3e, 0x8c, 0x3e, 0x36, 0x5b, 0xca, 0xbd, 
  0x04, 0xce, 0x33, 0xbb, 0x1a, 0xe8, 0x19, 0xbe, 0xef, 0x45, 0x47, 0x3e, 
  0x15, 0xb2, 0x4b, 0xbd, 0x43, 0x00, 0x68, 0xbe, 0x25, 0xa7, 0x95, 0x3e, 
  0x43, 0x29, 0x5c, 0x3e, 0xfb, 0x64, 0xea, 0xbd, 0xf6, 0x1f, 0x6c, 0x3e, 
  0x70, 0xce, 0x03, 0xbe, 0x7e, 0x1a, 0x84, 0x3e, 0x88, 0x48, 0x0e, 0xbe, 
  0x0c, 0x87, 0x59, 0xbe, 0xb1, 0x20, 0x8e, 0xbe, 0x6a, 0x93, 0x8d, 0xb9, 
  0xef, 0x3a, 0xd1, 0x3d, 0x9f, 0x1f, 0x36, 0x3e, 0x29, 0x79, 0x22, 0xbe, 
  0x02, 0x02, 0x9a, 0xbe, 0x2c, 0x39, 0x84, 0x3c, 0x8e, 0x5d, 0x9d, 0xbd, 
  0x89, 0xed, 0xfe, 0x3c, 0x83, 0xa9, 0x58, 0xbe, 0xa2, 0xf4, 0xba, 0x3c, 
  0xba, 0xbb, 0x52, 0xbe, 0x7a, 0x09, 0x51, 0xbe, 0x84, 0x89, 0x81, 0x3c, 
  0xfe, 0x49, 0xbe, 0xbd, 0x31, 0xb0, 0x81, 0xbe, 0x3b, 0x62, 0x69, 0x3e, 
  0x9a, 0x8b, 0x68, 0xbe, 0x21, 0x46, 0x58, 0xbe, 0xd6, 0x3b, 0x70, 0xbd, 
  0x08, 0x32, 0x29, 0x3e, 0xe0, 0xee, 0xc6, 0xbd, 0xa4, 0xb4, 0x99, 0xbe, 
  0xc0, 0x47, 0x82, 0xbe, 0x9d, 0x5f, 0xa7, 0x3b, 0x09, 0xaa, 0x50, 0x3d, 
  0x06, 0x6d, 0x88, 0x3e, 0xb1, 0xdb, 0x85, 0xbe, 0x05, 0x35, 0x8d, 0xbe, 
  0x9c, 0x9a, 0x95, 0xbd, 0x92, 0xbb, 0xb0, 0xbc, 0x5c, 0x48, 0x13, 0xbd, 
  0x89, 0xe8, 0xf8, 0xbd, 0x30, 0xde, 0x5f, 0xbe, 0x6e, 0x9c, 0xd7, 0x3d, 
  0x2a, 0xf6, 0xb1, 0xbc, 0xbe, 0x6f, 0x48, 0x3e, 0xe8, 0x6f, 0xbc, 0x3c, 
  0x9a, 0xfc, 0xb0, 0xbe, 0xa0, 0x91, 0x04, 0xbe, 0x0f, 0x1b, 0xbf, 0xbd, 
  0x43, 0xe9, 0x91, 0x3e, 0xda, 0x5c, 0xb8, 0x3d, 0x4b, 0x46, 0xef, 0x3c, 
  0x6e, 0x61, 0x10, 0x3e, 0x12, 0xd1, 0x95, 0x3e, 0x5c, 0xf4, 0xa7, 0x3d, 
  0x11, 0xa7, 0x7f, 0xbd, 0xa0, 0x10, 0x66, 0x3e, 0x76, 0x83, 0x4d, 0x3e, 
  0x15, 0x36, 0xa1, 0x3e, 0x78, 0x3f, 0xf2, 0x3b, 0xda, 0x41, 0x81, 0x3e, 
  0x2f, 0x17, 0xac, 0x3d, 0x94, 0x46, 0x1b, 0xbe, 0x33, 0x36, 0x33, 0xbd, 
  0x3c, 0x5a, 0x78, 0x3e, 0xcd, 0x2c, 0x74, 0xbd, 0xf2, 0x17, 0x56, 0xbe, 
  0x49, 0x98, 0xa9, 0x3d, 0x21, 0x5f, 0xa4, 0xbd, 0x47, 0x1b, 0xca, 0xbd, 
  0x0d, 0xd0, 0xd4, 0x3d, 0x6b, 0xc0, 0x76, 0x3e, 0x5a, 0x2e, 0xf1, 0xbd, 
  0xe3, 0x55, 0x8a, 0xbe, 0xd1, 0xfd, 0x8a, 0xbd, 0xaf, 0x6c, 0xce, 0x3d, 
  0x53, 0x0c, 0x39, 0x3e, 0xe9, 0x27, 0x5f, 0x3e, 0xfd, 0x56, 0x58, 0x3d, 
  0x9c, 0xa3, 0xe2, 0xbd, 0xf6, 0x70, 0x10, 0xbe, 0x90, 0x38, 0x19, 0xbd, 
  0xdd, 0xbb, 0x1a, 0x3d, 0x54, 0x13, 0x87, 0xbe, 0x8d, 0x81, 0x36, 0xbe, 
  0x24, 0x53, 0x81, 0xbd, 0x4c, 0x70, 0xb8, 0x3d, 0x52, 0xe8, 0xff, 0xbd, 
  0x10, 0xa3, 0x68, 0xbe, 0x04, 0x51, 0x75, 0xbd, 0x47, 0xd8, 0x4b, 0x3d, 
  0x4a, 0x14, 0x3c, 0xbe, 0x2a, 0xe1, 0x62, 0xba, 0x37, 0xd7, 0x19, 0x3c, 
  0x1c, 0xe3, 0x2a, 0x3e, 0x08, 0xd6, 0x88, 0x3d, 0x33, 0x99, 0x23, 0xbd, 
  0xe9, 0xdf, 0xc3, 0x3d, 0x20, 0xdf, 0xe1, 0x3d, 0x36, 0xb3, 0x2e, 0x3e, 
  0x7f, 0x2a, 0xf7, 0xbd, 0x47, 0x78, 0xfe, 0x3d, 0x5d, 0xe5, 0x5d, 0x3e, 
  0xeb, 0xd3, 0x4d, 0xbe, 0x00, 0x70, 0x25, 0xbe, 0xec, 0x31, 0xd9, 0x3d, 
  0x92, 0x91, 0x7e, 0xbe, 0xce, 0xcb, 0x03, 0x3e, 0xd5, 0x77, 0xc0, 0xbd, 
  0xda, 0x7e, 0xa2, 0xbe, 0xfc, 0x67, 0x54, 0xbe, 0xa4, 0xcb, 0xde, 0xbd, 
  0xc8, 0x73, 0x96, 0xbe, 0x5b, 0x91, 0x22, 0xbe, 0x40, 0xaf, 0x43, 0xbd, 
  0xa9, 0xa3, 0x1e, 0x3e, 0xa2, 0x35, 0x02, 0xbe, 0x1e, 0x15, 0xc8, 0xbd, 
  0xe9, 0x8e, 0xbb, 0xbc, 0x56, 0x31, 0xd8, 0xbd, 0xfd, 0xa6, 0x1c, 0x3d, 
  0x19, 0x3d, 0xad, 0xbe, 0xfa, 0xff, 0xa7, 0xbe, 0xbd, 0x23, 0x10, 0x3e, 
  0xea, 0x85, 0x24, 0x3d, 0xbb, 0xf5, 0x51, 0x3e, 0x20, 0xa4, 0x95, 0x3d, 
  0x10, 0xb3, 0x87, 0xbe, 0x08, 0x7a, 0xb1, 0xbe, 0xa1, 0xc3, 0x9f, 0xbd, 
  0xdc, 0xfb, 0x81, 0x3d, 0xc1, 0x1b, 0x19, 0xbe, 0xae, 0x49, 0x57, 0xbd, 
  0xbc, 0x64, 0x0f, 0xbe, 0xb9, 0x88, 0x91, 0xbc, 0x6c, 0xe4, 0x81, 0x3e, 
  0xac, 0x86, 0xa3, 0xbd, 0x5d, 0x17, 0x4b, 0xbb, 0x95, 0xb4, 0x8e, 0x3d, 
  0xbb, 0xbc, 0x0a, 0x3d, 0x8e, 0x71, 0x36, 0x3e, 0xe1, 0x9b, 0x12, 0x3e, 
  0x38, 0x79, 0x77, 0xbc, 0xf9, 0x91, 0xcc, 0xbd, 0x7d, 0x3e, 0x2e, 0xbd, 
  0x9d, 0xd0, 0x71, 0x3e, 0x21, 0xef, 0x3f, 0x3e, 0x0a, 0x40, 0x6e, 0x3e, 
  0x0b, 0xa0, 0xe9, 0x3d, 0xdd, 0x2b, 0x2a, 0x3d, 0xbb, 0x9e, 0x8e, 0xbe, 
  0x4e, 0x87, 0x25, 0x3e, 0xb0, 0xbe, 0x21, 0x3e, 0xdf, 0xde, 0xb1, 0xbd, 
  0x96, 0xd0, 0xad, 0x3d, 0x06, 0xfd, 0xc2, 0xbe, 0x0b, 0x8e, 0x84, 0x3e, 
  0xa0, 0xbb, 0x31, 0x3e, 0x9d, 0x5e, 0x54, 0x3e, 0xde, 0x85, 0xba, 0xbb, 
  0x00, 0x44, 0x2e, 0x3d, 0xd7, 0x7a, 0xe1, 0xbd, 0xda, 0xb4, 0x1f, 0x3c, 
  0x2f, 0x6b, 0x39, 0xbe, 0x19, 0x1f, 0x0f, 0xbc, 0xbf, 0xeb, 0xa5, 0xbd, 
  0x86, 0xa5, 0x7c, 0xbe, 0x8b, 0xb3, 0x86, 0xbd, 0x1b, 0x47, 0x73, 0x3e, 
  0x60, 0xc4, 0x0c, 0xbe, 0x62, 0xb1, 0x26, 0xbe, 0x7f, 0x9e, 0x11, 0xbe, 
  0x4f, 0x36, 0x88, 0x3c, 0x77, 0x58, 0x95, 0x3d, 0xf5, 0x70, 0x0c, 0x3e, 
  0xb6, 0x22, 0x3c, 0x3d, 0xfc, 0xf4, 0xba, 0xbd, 0xbe, 0x53, 0x61, 0x3e, 
  0x27, 0x37, 0x87, 0x3e, 0xc9, 0xcd, 0x85, 0x3c, 0x35, 0xad, 0xbe, 0xbe, 
  0x70, 0x7d, 0x28, 0x3e, 0x06, 0xc0, 0xfd, 0xbd, 0xdd, 0x3f, 0x7b, 0xbe, 
  0x17, 0x27, 0x14, 0x3c, 0xeb, 0x06, 0x12, 0xbe, 0x9f, 0xc0, 0x8c, 0x3d, 
  0x41, 0x70, 0xb1, 0xbc, 0xa8, 0x18, 0x84, 0xbc, 0xb0, 0xaa, 0x58, 0x3d, 
  0xde, 0x21, 0x7d, 0xbd, 0xe7, 0xa0, 0x96, 0x3e, 0x31, 0x33, 0x23, 0xbd, 
  0x35, 0xc7, 0xab, 0xbd, 0xc4, 0x64, 0xc8, 0x3d, 0x65, 0xbe, 0x79, 0x3e, 
  0xd6, 0xd9, 0x0d, 0x3e, 0x32, 0x9c, 0x2b, 0xbd, 0xb3, 0xa9, 0xc0, 0xbd, 
  0xb6, 0x08, 0x6b, 0xb9, 0x80, 0x99, 0x0f, 0x3e, 0x89, 0x80, 0x3e, 0x3d, 
  0x95, 0xf0, 0xb9, 0xbe, 0x15, 0x53, 0x1f, 0x3d, 0xeb, 0xeb, 0x8c, 0xbe, 
  0xd6, 0xc6, 0xa2, 0x3e, 0x13, 0x47, 0x5e, 0x3e, 0xde, 0x93, 0xea, 0xbd, 
  0xb9, 0x50, 0xa6, 0xbe, 0x0a, 0xfe, 0xff, 0xff, 0x04, 0x00, 0x00, 0x00, 
  0x0c, 0x00, 0x00, 0x00, 0xff, 0xff, 0xff, 0xff, 0x64, 0x00, 0x00, 0x00, 
  0x0a, 0x00, 0x00, 0x00, 0x22, 0xfe, 0xff, 0xff, 0x04, 0x00, 0x00, 0x00, 
  0x0c, 0x00, 0x00, 0x00, 0xff, 0xff, 0xff, 0xff, 0x32, 0x00, 0x00, 0x00, 
  0x0a, 0x00, 0x00, 0x00, 0x3a, 0xfe, 0xff, 0xff, 0x04, 0x00, 0x00, 0x00, 
  0x28, 0x00, 0x00, 0x00, 0x51, 0x9d, 0x5f, 0x3d, 0x7b, 0xed, 0xce, 0x3d, 
  0xdf, 0xe2, 0xdc, 0xbb, 0x46, 0xf4, 0xa6, 0x3d, 0x17, 0xf5, 0x53, 0xbd, 
  0x58, 0x35, 0x9f, 0x3d, 0x41, 0x89, 0xbd, 0x3c, 0xf5, 0xdf, 0x65, 0x3d, 
  0x00, 0x2a, 0x4e, 0x3b, 0xec, 0xdc, 0x14, 0x3d, 0x6e, 0xfe, 0xff, 0xff, 
  0x04, 0x00, 0x00, 0x00, 0x28, 0x00, 0x00, 0x00, 0x17, 0xcc, 0x03, 0x3d, 
  0x05, 0x93, 0xf1, 0x3c, 0x82, 0x4c, 0x05, 0x3d, 0x63, 0xee, 0x03, 0xbc, 
  0x11, 0x52, 0x8e, 0xbb, 0xb0, 0x0c, 0xc1, 0x3b, 0x1c, 0x08, 0x8f, 0x3d, 
  0x26, 0x0e, 0xd2, 0x3d, 0xb6, 0x0d, 0x0a, 0xbd, 0xfb, 0x48, 0x2a, 0xbc, 
  0xa2, 0xfe, 0xff, 0xff, 0x04, 0x00, 0x00, 0x00, 0x54, 0x00, 0x00, 0x00, 
  0x0d, 0xf7, 0x17, 0x3c, 0x18, 0x8f, 0x82, 0x3d, 0xd2, 0x35, 0xc6, 0x3a, 
  0x56, 0x7d, 0xc9, 0x3c, 0x3b, 0xda, 0x9e, 0x3c, 0x2f, 0xf5, 0x9c, 0x3c, 
  0x38, 0xb5, 0x2a, 0xbb, 0x2c, 0x9a, 0xa6, 0x3c, 0x6b, 0xf8, 0x85, 0x3c, 
  0x08, 0x37, 0xec, 0x3b, 0x9c, 0x25, 0x32, 0xbc, 0xc8, 0xee, 0x93, 0x3c, 
  0xc3, 0xe5, 0x7b, 0x3c, 0xb2, 0x14, 0xba, 0x3b, 0x21, 0xda, 0xa0, 0xbc, 
  0x83, 0x82, 0x2a, 0xbc, 0x9c, 0xcb, 0x01, 0xbb, 0x35, 0xf2, 0x8a, 0xbc, 
  0xee, 0x8b, 0x18, 0x3c, 0x89, 0x34, 0xb9, 0xbb, 0x07, 0xe8, 0x85, 0x3c, 
  0x02, 0xff, 0xff, 0xff, 0x04, 0x00, 0x00, 0x00, 0x0c, 0x00, 0x00, 0x00, 
  0xf5, 0x29, 0xe1, 0x3b, 0x87, 0x34, 0x04, 0xbd, 0x47, 0x8c, 0x88, 0x3c, 
  0x1a, 0xff, 0xff, 0xff, 0x04, 0x00, 0x00, 0x00, 0x04, 0x00, 0x00, 0x00, 
  0x01, 0x00, 0x00, 0x00, 0x2a, 0xff, 0xff, 0xff, 0x04, 0x00, 0x00, 0x00, 
  0x08, 0x00, 0x00, 0x00, 0xff, 0xff, 0xff, 0xff, 0xfa, 0x00, 0x00, 0x00, 
  0x3e, 0xff, 0xff, 0xff, 0x04, 0x00, 0x00, 0x00, 0x04, 0x00, 0x00, 0x00, 
  0xfd, 0xff, 0xff, 0xff, 0xe4, 0xee, 0xff, 0xff, 0xe8, 0xee, 0xff, 0xff, 
  0x0f, 0x00, 0x00, 0x00, 0x4d, 0x4c, 0x49, 0x52, 0x20, 0x43, 0x6f, 0x6e, 
  0x76, 0x65, 0x72, 0x74, 0x65, 0x64, 0x2e, 0x00, 0x01, 0x00, 0x00, 0x00, 
  0x14, 0x00, 0x00, 0x00, 0x00, 0x00, 0x0e, 0x00, 0x18, 0x00, 0x14, 0x00, 
  0x10, 0x00, 0x0c, 0x00, 0x08, 0x00, 0x04, 0x00, 0x0e, 0x00, 0x00, 0x00, 
  0x14, 0x00, 0x00, 0x00, 0x1c, 0x00, 0x00, 0x00, 0x90, 0x03, 0x00, 0x00, 
  0x94, 0x03, 0x00, 0x00, 0x98, 0x03, 0x00, 0x00, 0x04, 0x00, 0x00, 0x00, 
  0x6d, 0x61, 0x69, 0x6e, 0x00, 0x00, 0x00, 0x00, 0x0f, 0x00, 0x00, 0x00, 
  0x48, 0x03, 0x00, 0x00, 0xe8, 0x02, 0x00, 0x00, 0xb0, 0x02, 0x00, 0x00, 
  0x74, 0x02, 0x00, 0x00, 0x20, 0x02, 0x00, 0x00, 0xf8, 0x01, 0x00, 0x00, 
  0xc8, 0x01, 0x00, 0x00, 0x84, 0x01, 0x00, 0x00, 0x5c, 0x01, 0x00, 0x00, 
  0x2c, 0x01, 0x00, 0x00, 0xe8, 0x00, 0x00, 0x00, 0xc0, 0x00, 0x00, 0x00, 
  0x78, 0x00, 0x00, 0x00, 0x40, 0x00, 0x00, 0x00, 0x04, 0x00, 0x00, 0x00, 
  0x5e, 0xfd, 0xff, 0xff, 0x1c, 0x00, 0x00, 0x00, 0x00, 0x00, 0x00, 0x09, 
  0x1c, 0x00, 0x00, 0x00, 0x20, 0x00, 0x00, 0x00, 0x05, 0x00, 0x00, 0x00, 
  0x00, 0x00, 0x06, 0x00, 0x08, 0x00, 0x04, 0x00, 0x06, 0x00, 0x00, 0x00, 
  0x00, 0x00, 0x80, 0x3f, 0x01, 0x00, 0x00, 0x00, 0x1c, 0x00, 0x00, 0x00, 
  0x01, 0x00, 0x00, 0x00, 0x1b, 0x00, 0x00, 0x00, 0x96, 0xfd, 0xff, 0xff, 
  0x14, 0x00, 0x00, 0x00, 0x00, 0x00, 0x00, 0x08, 0x10, 0x00, 0x00, 0x00, 
  0x14, 0x00, 0x00, 0x00, 0x04, 0x00, 0x00, 0x00, 0xcc, 0xef, 0xff, 0xff, 
  0x01, 0x00, 0x00, 0x00, 0x1b, 0x00, 0x00, 0x00, 0x03, 0x00, 0x00, 0x00, 
  0x1a, 0x00, 0x00, 0x00, 0x0c, 0x00, 0x00, 0x00, 0x04, 0x00, 0x00, 0x00, 
  0xca, 0xfd, 0xff, 0xff, 0x20, 0x00, 0x00, 0x00, 0x00, 0x00, 0x00, 0x08, 
  0x20, 0x00, 0x00, 0x00, 0x24, 0x00, 0x00, 0x00, 0x04, 0x00, 0x00, 0x00, 
  0x0c, 0x00, 0x08, 0x00, 0x07, 0x00, 0x00, 0x00, 0x00, 0x00, 0x06, 0x00, 
  0x0c, 0x00, 0x00, 0x00, 0x00, 0x00, 0x01, 0x01, 0x01, 0x00, 0x00, 0x00, 
  0x1a, 0x00, 0x00, 0x00, 0x03, 0x00, 0x00, 0x00, 0x19, 0x00, 0x00, 0x00, 
  0x0d, 0x00, 0x00, 0x00, 0x05, 0x00, 0x00, 0x00, 0x3e, 0xfe, 0xff, 0xff, 
  0x0c, 0x00, 0x00, 0x00, 0x10, 0x00, 0x00, 0x00, 0x02, 0x00, 0x00, 0x00, 
  0x01, 0x00, 0x00, 0x00, 0x19, 0x00, 0x00, 0x00, 0x02, 0x00, 0x00, 0x00, 
  0x18, 0x00, 0x00, 0x00, 0x02, 0x00, 0x00, 0x00, 0x32, 0xfe, 0xff, 0xff, 
  0x14, 0x00, 0x00, 0x00, 0x00, 0x00, 0x00, 0x05, 0x24, 0x00, 0x00, 0x00, 
  0x28, 0x00, 0x00, 0x00, 0x03, 0x00, 0x00, 0x00, 0xde, 0xfe, 0xff, 0xff, 
  0x01, 0x00, 0x00, 0x00, 0x02, 0x00, 0x00, 0x00, 0x01, 0x00, 0x00, 0x00, 
  0x02, 0x00, 0x00, 0x00, 0x00, 0x00, 0x00, 0x01, 0x01, 0x00, 0x00, 0x00, 
  0x18, 0x00, 0x00, 0x00, 0x01, 0x00, 0x00, 0x00, 0x17, 0x00, 0x00, 0x00, 
  0x16, 0xfe, 0xff, 0xff, 0x10, 0x00, 0x00, 0x00, 0x00, 0x00, 0x00, 0x34, 
  0x0c, 0x00, 0x00, 0x00, 0x10, 0x00, 0x00, 0x00, 0xa4, 0xf0, 0xff, 0xff, 
  0x01, 0x00, 0x00, 0x00, 0x17, 0x00, 0x00, 0x00, 0x02, 0x00, 0x00, 0x00, 
  0x16, 0x00, 0x00, 0x00, 0x03, 0x00, 0x00, 0x00, 0xce, 0xfe, 0xff, 0xff, 
  0x0c, 0x00, 0x00, 0x00, 0x10, 0x00, 0x00, 0x00, 0x02, 0x00, 0x00, 0x00, 
  0x01, 0x00, 0x00, 0x00, 0x16, 0x00, 0x00, 0x00, 0x02, 0x00, 0x00, 0x00, 
  0x15, 0x00, 0x00, 0x00, 0x08, 0x00, 0x00, 0x00, 0xc2, 0xfe, 0xff, 0xff, 
  0x14, 0x00, 0x00, 0x00, 0x00, 0x00, 0x00, 0x01, 0x1c, 0x00, 0x00, 0x00, 
  0x20, 0x00, 0x00, 0x00, 0x01, 0x00, 0x00, 0x00, 0xb4, 0xfe, 0xff, 0xff, 
  0x00, 0x00, 0x00, 0x01, 0x01, 0x00, 0x00, 0x00, 0x01, 0x00, 0x00, 0x00, 
  0x01, 0x00, 0x00, 0x00, 0x15, 0x00, 0x00, 0x00, 0x03, 0x00, 0x00, 0x00, 
  0x14, 0x00, 0x00, 0x00, 0x0a, 0x00, 0x00, 0x00, 0x06, 0x00, 0x00, 0x00, 
  0xa6, 0xfe, 0xff, 0xff, 0x10, 0x00, 0x00, 0x00, 0x00, 0x00, 0x00, 0x34, 
  0x0c, 0x00, 0x00, 0x00, 0x10, 0x00, 0x00, 0x00, 0x34, 0xf1, 0xff, 0xff, 
  0x01, 0x00, 0x00, 0x00, 0x14, 0x00, 0x00, 0x00, 0x02, 0x00, 0x00, 0x00, 
  0x13, 0x00, 0x00, 0x00, 0x01, 0x00, 0x00, 0x00, 0x5e, 0xff, 0xff, 0xff, 
  0x0c, 0x00, 0x00, 0x00, 0x10, 0x00, 0x00, 0x00, 0x02, 0x00, 0x00, 0x00, 
  0x01, 0x00, 0x00, 0x00, 0x13, 0x00, 0x00, 0x00, 0x02, 0x00, 0x00, 0x00, 
  0x12, 0x00, 0x00, 0x00, 0x08, 0x00, 0x00, 0x00, 0x52, 0xff, 0xff, 0xff, 
  0x24, 0x00, 0x00, 0x00, 0x00, 0x00, 0x00, 0x05, 0x34, 0x00, 0x00, 0x00, 
  0x38, 0x00, 0x00, 0x00, 0x03, 0x00, 0x00, 0x00, 0x00, 0x00, 0x0e, 0x00, 
  0x18, 0x00, 0x17, 0x00, 0x10, 0x00, 0x0c, 0x00, 0x08, 0x00, 0x04, 0x00, 
  0x0e, 0x00, 0x00, 0x00, 0x01, 0x00, 0x00, 0x00, 0x02, 0x00, 0x00, 0x00, 
  0x01, 0x00, 0x00, 0x00, 0x02, 0x00, 0x00, 0x00, 0x00, 0x00, 0x00, 0x01, 
  0x01, 0x00, 0x00, 0x00, 0x12, 0x00, 0x00, 0x00, 0x01, 0x00, 0x00, 0x00, 
  0x11, 0x00, 0x00, 0x00, 0x46, 0xff, 0xff, 0xff, 0x10, 0x00, 0x00, 0x00, 
  0x00, 0x00, 0x00, 0x34, 0x0c, 0x00, 0x00, 0x00, 0x10, 0x00, 0x00, 0x00, 
  0xd4, 0xf1, 0xff, 0xff, 0x01, 0x00, 0x00, 0x00, 0x11, 0x00, 0x00, 0x00, 
  0x02, 0x00, 0x00, 0x00, 0x10, 0x00, 0x00, 0x00, 0x03, 0x00, 0x00, 0x00, 
  0x00, 0x00, 0x0a, 0x00, 0x10, 0x00, 0x0c, 0x00, 0x08, 0x00, 0x04, 0x00, 
  0x0a, 0x00, 0x00, 0x00, 0x0c, 0x00, 0x00, 0x00, 0x10, 0x00, 0x00, 0x00, 
  0x02, 0x00, 0x00, 0x00, 0x01, 0x00, 0x00, 0x00, 0x10, 0x00, 0x00, 0x00, 
  0x02, 0x00, 0x00, 0x00, 0x0f, 0x00, 0x00, 0x00, 0x09, 0x00, 0x00, 0x00, 
  0x00, 0x00, 0x0e, 0x00, 0x18, 0x00, 0x14, 0x00, 0x10, 0x00, 0x0c, 0x00, 
  0x0b, 0x00, 0x04, 0x00, 0x0e, 0x00, 0x00, 0x00, 0x20, 0x00, 0x00, 0x00, 
  0x00, 0x00, 0x00, 0x01, 0x28, 0x00, 0x00, 0x00, 0x2c, 0x00, 0x00, 0x00, 
  0x01, 0x00, 0x00, 0x00, 0x0c, 0x00, 0x10, 0x00, 0x00, 0x00, 0x0c, 0x00, 
  0x08, 0x00, 0x07, 0x00, 0x0c, 0x00, 0x00, 0x00, 0x00, 0x00, 0x00, 0x01, 
  0x01, 0x00, 0x00, 0x00, 0x01, 0x00, 0x00, 0x00, 0x01, 0x00, 0x00, 0x00, 
  0x0f, 0x00, 0x00, 0x00, 0x03, 0x00, 0x00, 0x00, 0x0e, 0x00, 0x00, 0x00, 
  0x0b, 0x00, 0x00, 0x00, 0x07, 0x00, 0x00, 0x00, 0x00, 0x00, 0x0e, 0x00, 
  0x14, 0x00, 0x00, 0x00, 0x10, 0x00, 0x0c, 0x00, 0x0b, 0x00, 0x04, 0x00, 
  0x0e, 0x00, 0x00, 0x00, 0x10, 0x00, 0x00, 0x00, 0x00, 0x00, 0x00, 0x34, 
  0x0c, 0x00, 0x00, 0x00, 0x10, 0x00, 0x00, 0x00, 0x9c, 0xf2, 0xff, 0xff, 
  0x01, 0x00, 0x00, 0x00, 0x0e, 0x00, 0x00, 0x00, 0x02, 0x00, 0x00, 0x00, 
  0x00, 0x00, 0x00, 0x00, 0x01, 0x00, 0x00, 0x00, 0x01, 0x00, 0x00, 0x00, 
  0x1c, 0x00, 0x00, 0x00, 0x01, 0x00, 0x00, 0x00, 0x00, 0x00, 0x00, 0x00, 
  0x1d, 0x00, 0x00, 0x00, 0x0c, 0x0d, 0x00, 0x00, 0xb8, 0x0c, 0x00, 0x00, 
  0x60, 0x0c, 0x00, 0x00, 0x24, 0x0c, 0x00, 0x00, 0xe8, 0x0b, 0x00, 0x00, 
  0x94, 0x0b, 0x00, 0x00, 0x58, 0x0b, 0x00, 0x00, 0x1c, 0x0b, 0x00, 0x00, 
  0xdc, 0x0a, 0x00, 0x00, 0x9c, 0x0a, 0x00, 0x00, 0x54, 0x0a, 0x00, 0x00, 
  0x08, 0x0a, 0x00, 0x00, 0xc4, 0x09, 0x00, 0x00, 0x60, 0x08, 0x00, 0x00, 
  0xe0, 0x07, 0x00, 0x00, 0x08, 0x07, 0x00, 0x00, 0x5c, 0x06, 0x00, 0x00, 
  0xd8, 0x05, 0x00, 0x00, 0x60, 0x05, 0x00, 0x00, 0xe8, 0x04, 0x00, 0x00, 
  0x68, 0x04, 0x00, 0x00, 0x88, 0x03, 0x00, 0x00, 0xd4, 0x02, 0x00, 0x00, 
  0x50, 0x02, 0x00, 0x00, 0xd4, 0x01, 0x00, 0x00, 0x74, 0x01, 0x00, 0x00, 
  0xe0, 0x00, 0x00, 0x00, 0x60, 0x00, 0x00, 0x00, 0x04, 0x00, 0x00, 0x00, 
  0x7e, 0xf3, 0xff, 0xff, 0x00, 0x00, 0x00, 0x01, 0x14, 0x00, 0x00, 0x00, 
  0x1c, 0x00, 0x00, 0x00, 0x1c, 0x00, 0x00, 0x00, 0x1d, 0x00, 0x00, 0x00, 
  0x34, 0x00, 0x00, 0x00, 0x02, 0x00, 0x00, 0x00, 0xff, 0xff, 0xff, 0xff, 
  0x03, 0x00, 0x00, 0x00, 0x64, 0xf3, 0xff, 0xff, 0x1b, 0x00, 0x00, 0x00, 
  0x53, 0x74, 0x61, 0x74, 0x65, 0x66, 0x75, 0x6c, 0x50, 0x61, 0x72, 0x74, 
  0x69, 0x74, 0x69, 0x6f, 0x6e, 0x65, 0x64, 0x43, 0x61, 0x6c, 0x6c, 0x5f, 
  0x31, 0x3a, 0x30, 0x00, 0x02, 0x00, 0x00, 0x00, 0x01, 0x00, 0x00, 0x00, 
  0x03, 0x00, 0x00, 0x00, 0xd6, 0xf3, 0xff, 0xff, 0x00, 0x00, 0x00, 0x01, 
  0x14, 0x00, 0x00, 0x00, 0x1c, 0x00, 0x00, 0x00, 0x1c, 0x00, 0x00, 0x00, 
  0x1c, 0x00, 0x00, 0x00, 0x58, 0x00, 0x00, 0x00, 0x02, 0x00, 0x00, 0x00, 
  0xff, 0xff, 0xff, 0xff, 0x03, 0x00, 0x00, 0x00, 0xbc, 0xf3, 0xff, 0xff, 
  0x3c, 0x00, 0x00, 0x00, 0x73, 0x65, 0x71, 0x75, 0x65, 0x6e, 0x74, 0x69, 
  0x61, 0x6c, 0x5f, 0x31, 0x2f, 0x64, 0x65, 0x6e, 0x73, 0x65, 0x5f, 0x31, 
  0x5f, 0x32, 0x2f, 0x4d, 0x61, 0x74, 0x4d, 0x75, 0x6c, 0x3b, 0x73, 0x65, 
  0x71, 0x75, 0x65, 0x6e, 0x74, 0x69, 0x61, 0x6c, 0x5f, 0x31, 0x2f, 0x64, 
  0x65, 0x6e, 0x73, 0x65, 0x5f, 0x31, 0x5f, 0x32, 0x2f, 0x42, 0x69, 0x61, 
  0x73, 0x41, 0x64, 0x64, 0x00, 0x00, 0x00, 0x00, 0x02, 0x00, 0x00, 0x00, 
  0x01, 0x00, 0x00, 0x00, 0x03, 0x00, 0x00, 0x00, 0x52, 0xf4, 0xff, 0xff, 
  0x00, 0x00, 0x00, 0x01, 0x14, 0x00, 0x00, 0x00, 0x1c, 0x00, 0x00, 0x00, 
  0x1c, 0x00, 0x00, 0x00, 0x1b, 0x00, 0x00, 0x00, 0x6c, 0x00, 0x00, 0x00, 
  0x02, 0x00, 0x00, 0x00, 0xff, 0xff, 0xff, 0xff, 0x15, 0x00, 0x00, 0x00, 
  0x38, 0xf4, 0xff, 0xff, 0x52, 0x00, 0x00, 0x00, 0x73, 0x65, 0x71, 0x75, 
  0x65, 0x6e, 0x74, 0x69, 0x61, 0x6c, 0x5f, 0x31, 0x2f, 0x64, 0x65, 0x6e, 
  0x73, 0x65, 0x5f, 0x31, 0x2f, 0x4d, 0x61, 0x74, 0x4d, 0x75, 0x6c, 0x3b, 
  0x73, 0x65, 0x71, 0x75, 0x65, 0x6e, 0x74, 0x69, 0x61, 0x6c, 0x5f, 0x31, 
  0x2f, 0x64, 0x65, 0x6e, 0x73, 0x65, 0x5f, 0x31, 0x2f, 0x52, 0x65, 0x6c, 
  0x75, 0x3b, 0x73, 0x65, 0x71, 0x75, 0x65, 0x6e, 0x74, 0x69, 0x61, 0x6c, 
  0x5f, 0x31, 0x2f, 0x64, 0x65, 0x6e, 0x73, 0x65, 0x5f, 0x31, 0x2f, 0x42, 
  0x69, 0x61, 0x73, 0x41, 0x64, 0x64, 0x00, 0x00, 0x02, 0x00, 0x00, 0x00, 
  0x01, 0x00, 0x00, 0x00, 0x15, 0x00, 0x00, 0x00, 0xe2, 0xf4, 0xff, 0xff, 
  0x00, 0x00, 0x00, 0x01, 0x14, 0x00, 0x00, 0x00, 0x1c, 0x00, 0x00, 0x00, 
  0x1c, 0x00, 0x00, 0x00, 0x1a, 0x00, 0x00, 0x00, 0x38, 0x00, 0x00, 0x00, 
  0x02, 0x00, 0x00, 0x00, 0xff, 0xff, 0xff, 0xff, 0xfa, 0x00, 0x00, 0x00, 
  0xc8, 0xf4, 0xff, 0xff, 0x1e, 0x00, 0x00, 0x00, 0x73, 0x65, 0x71, 0x75, 
  0x65, 0x6e, 0x74, 0x69, 0x61, 0x6c, 0x5f, 0x31, 0x2f, 0x66, 0x6c, 0x61, 
  0x74, 0x74, 0x65, 0x6e, 0x5f, 0x31, 0x2f, 0x52, 0x65, 0x73, 0x68, 0x61, 
  0x70, 0x65, 0x00, 0x00, 0x02, 0x00, 0x00, 0x00, 0x01, 0x00, 0x00, 0x00, 
  0xfa, 0x00, 0x00, 0x00, 0x3e, 0xf5, 0xff, 0xff, 0x00, 0x00, 0x00, 0x01, 
  0x14, 0x00, 0x00, 0x00, 0x24, 0x00, 0x00, 0x00, 0x24, 0x00, 0x00, 0x00, 
  0x19, 0x00, 0x00, 0x00, 0x4c, 0x00, 0x00, 0x00, 0x04, 0x00, 0x00, 0x00, 
  0xff, 0xff, 0xff, 0xff, 0x01, 0x00, 0x00, 0x00, 0x19, 0x00, 0x00, 0x00, 
  0x0a, 0x00, 0x00, 0x00, 0x2c, 0xf5, 0xff, 0xff, 0x28, 0x00, 0x00, 0x00, 
  0x73, 0x65, 0x71, 0x75, 0x65, 0x6e, 0x74, 0x69, 0x61, 0x6c, 0x5f, 0x31, 
  0x2f, 0x6d, 0x61, 0x78, 0x5f, 0x70, 0x6f, 0x6f, 0x6c, 0x69, 0x6e, 0x67, 
  0x31, 0x64, 0x5f, 0x31, 0x5f, 0x32, 0x2f, 0x4d, 0x61, 0x78, 0x50, 0x6f, 
  0x6f, 0x6c, 0x31, 0x64, 0x00, 0x00, 0x00, 0x00, 0x04, 0x00, 0x00, 0x00, 
  0x01, 0x00, 0x00, 0x00, 0x01, 0x00, 0x00, 0x00, 0x19, 0x00, 0x00, 0x00, 
  0x0a, 0x00, 0x00, 0x00, 0xb6, 0xf5, 0xff, 0xff, 0x00, 0x00, 0x00, 0x01, 
  0x14, 0x00, 0x00, 0x00, 0x24, 0x00, 0x00, 0x00, 0x24, 0x00, 0x00, 0x00, 
  0x18, 0x00, 0x00, 0x00, 0x54, 0x00, 0x00, 0x00, 0x04, 0x00, 0x00, 0x00, 
  0xff, 0xff, 0xff, 0xff, 0x01, 0x00, 0x00, 0x00, 0x32, 0x00, 0x00, 0x00, 
  0x0a, 0x00, 0x00, 0x00, 0xa4, 0xf5, 0xff, 0xff, 0x33, 0x00, 0x00, 0x00, 
  0x73, 0x65, 0x71, 0x75, 0x65, 0x6e, 0x74, 0x69, 0x61, 0x6c, 0x5f, 0x31, 
  0x2f, 0x6d, 0x61, 0x78, 0x5f, 0x70, 0x6f, 0x6f, 0x6c, 0x69, 0x6e, 0x67, 
  0x31, 0x64, 0x5f, 0x31, 0x5f, 0x32, 0x2f, 0x4d, 0x61, 0x78, 0x50, 0x6f, 
  0x6f, 0x6c, 0x31, 0x64, 0x2f, 0x45, 0x78, 0x70, 0x61, 0x6e, 0x64, 0x44, 
  0x69, 0x6d, 0x73, 0x00, 0x04, 0x00, 0x00, 0x00, 0x01, 0x00, 0x00, 0x00, 
  0x01, 0x00, 0x00, 0x00, 0x32, 0x00, 0x00, 0x00, 0x0a, 0x00, 0x00, 0x00, 
  0x36, 0xf6, 0xff, 0xff, 0x00, 0x00, 0x00, 0x01, 0x14, 0x00, 0x00, 0x00, 
  0x20, 0x00, 0x00, 0x00, 0x20, 0x00, 0x00, 0x00, 0x17, 0x00, 0x00, 0x00, 
  0x88, 0x00, 0x00, 0x00, 0x03, 0x00, 0x00, 0x00, 0xff, 0xff, 0xff, 0xff, 
  0x32, 0x00, 0x00, 0x00, 0x0a, 0x00, 0x00, 0x00, 0x20, 0xf6, 0xff, 0xff, 
  0x69, 0x00, 0x00, 0x00, 0x73, 0x65, 0x71, 0x75, 0x65, 0x6e, 0x74, 0x69, 
  0x61, 0x6c, 0x5f, 0x31, 0x2f, 0x63, 0x6f, 0x6e, 0x76, 0x31, 0x64, 0x5f, 
  0x31, 0x5f, 0x32, 0x2f, 0x52, 0x65, 0x6c, 0x75, 0x3b, 0x73, 0x65, 0x71, 
  0x75, 0x65, 0x6e, 0x74, 0x69, 0x61, 0x6c, 0x5f, 0x31, 0x2f, 0x63, 0x6f, 
  0x6e, 0x76, 0x31, 0x64, 0x5f, 0x31, 0x5f, 0x32, 0x2f, 0x42, 0x69, 0x61, 
  0x73, 0x41, 0x64, 0x64, 0x3b, 0x73, 0x65, 0x71, 0x75, 0x65, 0x6e, 0x74, 
  0x69, 0x61, 0x6c, 0x5f, 0x31, 0x2f, 0x63, 0x6f, 0x6e, 0x76, 0x31, 0x64, 
  0x5f, 0x31, 0x5f, 0x32, 0x2f, 0x63, 0x6f, 0x6e, 0x76, 0x6f, 0x6c, 0x75, 
  0x74, 0x69, 0x6f, 0x6e, 0x2f, 0x53, 0x71, 0x75, 0x65, 0x65, 0x7a, 0x65, 
  0x3b, 0x00, 0x00, 0x00, 0x03, 0x00, 0x00, 0x00, 0x01, 0x00, 0x00, 0x00, 
  0x32, 0x00, 0x00, 0x00, 0x0a, 0x00, 0x00, 0x00, 0xe6, 0xf6, 0xff, 0xff, 
  0x00, 0x00, 0x00, 0x01, 0x14, 0x00, 0x00, 0x00, 0x24, 0x00, 0x00, 0x00, 
  0x24, 0x00, 0x00, 0x00, 0x16, 0x00, 0x00, 0x00, 0xb0, 0x00, 0x00, 0x00, 
  0x04, 0x00, 0x00, 0x00, 0xff, 0xff, 0xff, 0xff, 0x01, 0x00, 0x00, 0x00, 
  0x32, 0x00, 0x00, 0x00, 0x0a, 0x00, 0x00, 0x00, 0xd4, 0xf6, 0xff, 0xff, 
  0x8d, 0x00, 0x00, 0x00, 0x73, 0x65, 0x71, 0x75, 0x65, 0x6e, 0x74, 0x69, 
  0x61, 0x6c, 0x5f, 0x31, 0x2f, 0x63, 0x6f, 0x6e, 0x76, 0x31, 0x64, 0x5f, 
  0x31, 0x5f, 0x32, 0x2f, 0x52, 0x65, 0x6c, 0x75, 0x3b, 0x73, 0x65, 0x71, 
  0x75, 0x65, 0x6e, 0x74, 0x69, 0x61, 0x6c, 0x5f, 0x31, 0x2f, 0x63, 0x6f, 
  0x6e, 0x76, 0x31, 0x64, 0x5f, 0x31, 0x5f, 0x32, 0x2f, 0x42, 0x69, 0x61, 
  0x73, 0x41, 0x64, 0x64, 0x3b, 0x73, 0x65, 0x71, 0x75, 0x65, 0x6e, 0x74, 
  0x69, 0x61, 0x6c, 0x5f, 0x31, 0x2f, 0x63, 0x6f, 0x6e, 0x76, 0x31, 0x64, 
  0x5f, 0x31, 0x5f, 0x32, 0x2f, 0x63, 0x6f, 0x6e, 0x76, 0x6f, 0x6c, 0x75, 
  0x74, 0x69, 0x6f, 0x6e, 0x2f, 0x53, 0x71, 0x75, 0x65, 0x65, 0x7a, 0x65, 
  0x3b, 0x3b, 0x73, 0x65, 0x71, 0x75, 0x65, 0x6e, 0x74, 0x69, 0x61, 0x6c, 
  0x5f, 0x31, 0x2f, 0x63, 0x6f, 0x6e, 0x76, 0x31, 0x64, 0x5f, 0x31, 0x5f, 
  0x32, 0x2f, 0x63, 0x6f, 0x6e, 0x76, 0x6f, 0x6c, 0x75, 0x74, 0x69, 0x6f, 
  0x6e, 0x00, 0x00, 0x00, 0x04, 0x00, 0x00, 0x00, 0x01, 0x00, 0x00, 0x00, 
  0x01, 0x00, 0x00, 0x00, 0x32, 0x00, 0x00, 0x00, 0x0a, 0x00, 0x00, 0x00, 
  0xc2, 0xf7, 0xff, 0xff, 0x00, 0x00, 0x00, 0x01, 0x14, 0x00, 0x00, 0x00, 
  0x24, 0x00, 0x00, 0x00, 0x24, 0x00, 0x00, 0x00, 0x15, 0x00, 0x00, 0x00, 
  0x50, 0x00, 0x00, 0x00, 0x04, 0x00, 0x00, 0x00, 0xff, 0xff, 0xff, 0xff, 
  0x01, 0x00, 0x00, 0x00, 0x32, 0x00, 0x00, 0x00, 0x0a, 0x00, 0x00, 0x00, 
  0xb0, 0xf7, 0xff, 0xff, 0x2e, 0x00, 0x00, 0x00, 0x73, 0x65, 0x71, 0x75, 
  0x65, 0x6e, 0x74, 0x69, 0x61, 0x6c, 0x5f, 0x31, 0x2f, 0x63, 0x6f, 0x6e, 
  0x76, 0x31, 0x64, 0x5f, 0x31, 0x5f, 0x32, 0x2f, 0x63, 0x6f, 0x6e, 0x76, 
  0x6f, 0x6c, 0x75, 0x74, 0x69, 0x6f, 0x6e, 0x2f, 0x45, 0x78, 0x70, 0x61, 
  0x6e, 0x64, 0x44, 0x69, 0x6d, 0x73, 0x00, 0x00, 0x04, 0x00, 0x00, 0x00, 
  0x01, 0x00, 0x00, 0x00, 0x01, 0x00, 0x00, 0x00, 0x32, 0x00, 0x00, 0x00, 
  0x0a, 0x00, 0x00, 0x00, 0x3e, 0xf8, 0xff, 0xff, 0x00, 0x00, 0x00, 0x01, 
  0x14, 0x00, 0x00, 0x00, 0x20, 0x00, 0x00, 0x00, 0x20, 0x00, 0x00, 0x00, 
  0x14, 0x00, 0x00, 0x00, 0x4c, 0x00, 0x00, 0x00, 0x03, 0x00, 0x00, 0x00, 
  0xff, 0xff, 0xff, 0xff, 0x32, 0x00, 0x00, 0x00, 0x0a, 0x00, 0x00, 0x00, 
  0x28, 0xf8, 0xff, 0xff, 0x2e, 0x00, 0x00, 0x00, 0x73, 0x65, 0x71, 0x75, 
  0x65, 0x6e, 0x74, 0x69, 0x61, 0x6c, 0x5f, 0x31, 0x2f, 0x6d, 0x61, 0x78, 
  0x5f, 0x70, 0x6f, 0x6f, 0x6c, 0x69, 0x6e, 0x67, 0x31, 0x64, 0x5f, 0x31, 
  0x2f, 0x4d, 0x61, 0x78, 0x50, 0x6f, 0x6f, 0x6c, 0x31, 0x64, 0x2f, 0x53, 
  0x71, 0x75, 0x65, 0x65, 0x7a, 0x65, 0x00, 0x00, 0x03, 0x00, 0x00, 0x00, 
  0x01, 0x00, 0x00, 0x00, 0x32, 0x00, 0x00, 0x00, 0x0a, 0x00, 0x00, 0x00, 
  0xb2, 0xf8, 0xff, 0xff, 0x00, 0x00, 0x00, 0x01, 0x14, 0x00, 0x00, 0x00, 
  0x24, 0x00, 0x00, 0x00, 0x24, 0x00, 0x00, 0x00, 0x13, 0x00, 0x00, 0x00, 
  0x48, 0x00, 0x00, 0x00, 0x04, 0x00, 0x00, 0x00, 0xff, 0xff, 0xff, 0xff, 
  0x01, 0x00, 0x00, 0x00, 0x32, 0x00, 0x00, 0x00, 0x0a, 0x00, 0x00, 0x00, 
  0xa0, 0xf8, 0xff, 0xff, 0x26, 0x00, 0x00, 0x00, 0x73, 0x65, 0x71, 0x75, 
  0x65, 0x6e, 0x74, 0x69, 0x61, 0x6c, 0x5f, 0x31, 0x2f, 0x6d, 0x61, 0x78, 
  0x5f, 0x70, 0x6f, 0x6f, 0x6c, 0x69, 0x6e, 0x67, 0x31, 0x64, 0x5f, 0x31, 
  0x2f, 0x4d, 0x61, 0x78, 0x50, 0x6f, 0x6f, 0x6c, 0x31, 0x64, 0x00, 0x00, 
  0x04, 0x00, 0x00, 0x00, 0x01, 0x00, 0x00, 0x00, 0x01, 0x00, 0x00, 0x00, 
  0x32, 0x00, 0x00, 0x00, 0x0a, 0x00, 0x00, 0x00, 0x26, 0xf9, 0xff, 0xff, 
  0x00, 0x00, 0x00, 0x01, 0x14, 0x00, 0x00, 0x00, 0x24, 0x00, 0x00, 0x00, 
  0x24, 0x00, 0x00, 0x00, 0x12, 0x00, 0x00, 0x00, 0x54, 0x00, 0x00, 0x00, 
  0x04, 0x00, 0x00, 0x00, 0xff, 0xff, 0xff, 0xff, 0x01, 0x00, 0x00, 0x00, 
  0x64, 0x00, 0x00, 0x00, 0x0a, 0x00, 0x00, 0x00, 0x14, 0xf9, 0xff, 0xff, 
  0x31, 0x00, 0x00, 0x00, 0x73, 0x65, 0x71, 0x75, 0x65, 0x6e, 0x74, 0x69, 
  0x61, 0x6c, 0x5f, 0x31, 0x2f, 0x6d, 0x61, 0x78, 0x5f, 0x70, 0x6f, 0x6f, 
  0x6c, 0x69, 0x6e, 0x67, 0x31, 0x64, 0x5f, 0x31, 0x2f, 0x4d, 0x61, 0x78, 
  0x50, 0x6f, 0x6f, 0x6c, 0x31, 0x64, 0x2f, 0x45, 0x78, 0x70, 0x61, 0x6e, 
  0x64, 0x44, 0x69, 0x6d, 0x73, 0x00, 0x00, 0x00, 0x04, 0x00, 0x00, 0x00, 
  0x01, 0x00, 0x00, 0x00, 0x01, 0x00, 0x00, 0x00, 0x64, 0x00, 0x00, 0x00, 
  0x0a, 0x00, 0x00, 0x00, 0xa6, 0xf9, 0xff, 0xff, 0x00, 0x00, 0x00, 0x01, 
  0x14, 0x00, 0x00, 0x00, 0x20, 0x00, 0x00, 0x00, 0x20, 0x00, 0x00, 0x00, 
  0x11, 0x00, 0x00, 0x00, 0x80, 0x00, 0x00, 0x00, 0x03, 0x00, 0x00, 0x00, 
  0xff, 0xff, 0xff, 0xff, 0x64, 0x00, 0x00, 0x00, 0x0a, 0x00, 0x00, 0x00, 
  0x90, 0xf9, 0xff, 0xff, 0x63, 0x00, 0x00, 0x00, 0x73, 0x65, 0x71, 0x75, 
  0x65, 0x6e, 0x74, 0x69, 0x61, 0x6c, 0x5f, 0x31, 0x2f, 0x63, 0x6f, 0x6e, 
  0x76, 0x31, 0x64, 0x5f, 0x31, 0x2f, 0x52, 0x65, 0x6c, 0x75, 0x3b, 0x73, 
  0x65, 0x71, 0x75, 0x65, 0x6e, 0x74, 0x69, 0x61, 0x6c, 0x5f, 0x31, 0x2f, 
  0x63, 0x6f, 0x6e, 0x76, 0x31, 0x64, 0x5f, 0x31, 0x2f, 0x42, 0x69, 0x61, 
  0x73, 0x41, 0x64, 0x64, 0x3b, 0x73, 0x65, 0x71, 0x75, 0x65, 0x6e, 0x74, 
  0x69, 0x61, 0x6c, 0x5f, 0x31, 0x2f, 0x63, 0x6f, 0x6e, 0x76, 0x31, 0x64, 
  0x5f, 0x31, 0x2f, 0x63, 0x6f, 0x6e, 0x76, 0x6f, 0x6c, 0x75, 0x74, 0x69, 
  0x6f, 0x6e, 0x2f, 0x53, 0x71, 0x75, 0x65, 0x65, 0x7a, 0x65, 0x3b, 0x00, 
  0x03, 0x00, 0x00, 0x00, 0x01, 0x00, 0x00, 0x00, 0x64, 0x00, 0x00, 0x00, 
  0x0a, 0x00, 0x00, 0x00, 0x4e, 0xfa, 0xff, 0xff, 0x00, 0x00, 0x00, 0x01, 
  0x14, 0x00, 0x00, 0x00, 0x24, 0x00, 0x00, 0x00, 0x24, 0x00, 0x00, 0x00, 
  0x10, 0x00, 0x00, 0x00, 0xa8, 0x00, 0x00, 0x00, 0x04, 0x00, 0x00, 0x00, 
  0xff, 0xff, 0xff, 0xff, 0x01, 0x00, 0x00, 0x00, 0x64, 0x00, 0x00, 0x00, 
  0x0a, 0x00, 0x00, 0x00, 0x3c, 0xfa, 0xff, 0xff, 0x85, 0x00, 0x00, 0x00, 
  0x73, 0x65, 0x71, 0x75, 0x65, 0x6e, 0x74, 0x69, 0x61, 0x6c, 0x5f, 0x31, 
  0x2f, 0x63, 0x6f, 0x6e, 0x76, 0x31, 0x64, 0x5f, 0x31, 0x2f, 0x52, 0x65, 
  0x6c, 0x75, 0x3b, 0x73, 0x65, 0x71, 0x75, 0x65, 0x6e, 0x74, 0x69, 0x61, 
  0x6c, 0x5f, 0x31, 0x2f, 0x63, 0x6f, 0x6e, 0x76, 0x31, 0x64, 0x5f, 0x31, 
  0x2f, 0x42, 0x69, 0x61, 0x73, 0x41, 0x64, 0x64, 0x3b, 0x73, 0x65, 0x71, 
  0x75, 0x65, 0x6e, 0x74, 0x69, 0x61, 0x6c, 0x5f, 0x31, 0x2f, 0x63, 0x6f, 
  0x6e, 0x76, 0x31, 0x64, 0x5f, 0x31, 0x2f, 0x63, 0x6f, 0x6e, 0x76, 0x6f, 
  0x6c, 0x75, 0x74, 0x69, 0x6f, 0x6e, 0x2f, 0x53, 0x71, 0x75, 0x65, 0x65, 
  0x7a, 0x65, 0x3b, 0x3b, 0x73, 0x65, 0x71, 0x75, 0x65, 0x6e, 0x74, 0x69, 
  0x61, 0x6c, 0x5f, 0x31, 0x2f, 0x63, 0x6f, 0x6e, 0x76, 0x31, 0x64, 0x5f, 
  0x31, 0x2f, 0x63, 0x6f, 0x6e, 0x76, 0x6f, 0x6c, 0x75, 0x74, 0x69, 0x6f, 
  0x6e, 0x00, 0x00, 0x00, 0x04, 0x00, 0x00, 0x00, 0x01, 0x00, 0x00, 0x00, 
  0x01, 0x00, 0x00, 0x00, 0x64, 0x00, 0x00, 0x00, 0x0a, 0x00, 0x00, 0x00, 
  0x22, 0xfb, 0xff, 0xff, 0x00, 0x00, 0x00, 0x01, 0x14, 0x00, 0x00, 0x00, 
  0x24, 0x00, 0x00, 0x00, 0x24, 0x00, 0x00, 0x00, 0x0f, 0x00, 0x00, 0x00, 
  0x50, 0x00, 0x00, 0x00, 0x04, 0x00, 0x00, 0x00, 0xff, 0xff, 0xff, 0xff, 
  0x01, 0x00, 0x00, 0x00, 0x64, 0x00, 0x00, 0x00, 0x02, 0x00, 0x00, 0x00, 
  0x10, 0xfb, 0xff, 0xff, 0x2c, 0x00, 0x00, 0x00, 0x73, 0x65, 0x71, 0x75, 
  0x65, 0x6e, 0x74, 0x69, 0x61, 0x6c, 0x5f, 0x31, 0x2f, 0x63, 0x6f, 0x6e, 
  0x76, 0x31, 0x64, 0x5f, 0x31, 0x2f, 0x63, 0x6f, 0x6e, 0x76, 0x6f, 0x6c, 
  0x75, 0x74, 0x69, 0x6f, 0x6e, 0x2f, 0x45, 0x78, 0x70, 0x61, 0x6e, 0x64, 
  0x44, 0x69, 0x6d, 0x73, 0x00, 0x00, 0x00, 0x00, 0x04, 0x00, 0x00, 0x00, 
  0x01, 0x00, 0x00, 0x00, 0x01, 0x00, 0x00, 0x00, 0x64, 0x00, 0x00, 0x00, 
  0x02, 0x00, 0x00, 0x00, 0xee, 0xfb, 0xff, 0xff, 0x00, 0x00, 0x00, 0x01, 
  0x20, 0x00, 0x00, 0x00, 0x30, 0x01, 0x00, 0x00, 0x0e, 0x00, 0x00, 0x00, 
  0x00, 0x00, 0x00, 0x09, 0x3c, 0x01, 0x00, 0x00, 0x0c, 0x00, 0x0c, 0x00, 
  0x00, 0x00, 0x00, 0x00, 0x08, 0x00, 0x04, 0x00, 0x0c, 0x00, 0x00, 0x00, 
  0x08, 0x00, 0x00, 0x00, 0xb4, 0x00, 0x00, 0x00, 0x15, 0x00, 0x00, 0x00, 
  0x00, 0x00, 0x00, 0x00, 0x00, 0x00, 0x00, 0x00, 0x00, 0x00, 0x00, 0x00, 
  0x00, 0x00, 0x00, 0x00, 0x00, 0x00, 0x00, 0x00, 0x00, 0x00, 0x00, 0x00, 
  0x00, 0x00, 0x00, 0x00, 0x00, 0x00, 0x00, 0x00, 0x00, 0x00, 0x00, 0x00, 
  0x00, 0x00, 0x00, 0x00, 0x00, 0x00, 0x00, 0x00, 0x00, 0x00, 0x00, 0x00, 
  0x00, 0x00, 0x00, 0x00, 0x00, 0x00, 0x00, 0x00, 0x00, 0x00, 0x00, 0x00, 
  0x00, 0x00, 0x00, 0x00, 0x00, 0x00, 0x00, 0x00, 0x00, 0x00, 0x00, 0x00, 
  0x00, 0x00, 0x00, 0x00, 0x00, 0x00, 0x00, 0x00, 0x00, 0x00, 0x00, 0x00, 
  0x00, 0x00, 0x00, 0x00, 0x00, 0x00, 0x00, 0x00, 0x00, 0x00, 0x00, 0x00, 
  0x00, 0x00, 0x00, 0x00, 0x00, 0x00, 0x00, 0x00, 0x00, 0x00, 0x00, 0x00, 
  0x00, 0x00, 0x00, 0x00, 0x00, 0x00, 0x00, 0x00, 0x00, 0x00, 0x00, 0x00, 
  0x00, 0x00, 0x00, 0x00, 0x00, 0x00, 0x00, 0x00, 0x00, 0x00, 0x00, 0x00, 
  0x00, 0x00, 0x00, 0x00, 0x00, 0x00, 0x00, 0x00, 0x00, 0x00, 0x00, 0x00, 
  0x00, 0x00, 0x00, 0x00, 0x00, 0x00, 0x00, 0x00, 0x00, 0x00, 0x00, 0x00, 
  0x00, 0x00, 0x00, 0x00, 0x00, 0x00, 0x00, 0x00, 0x00, 0x00, 0x00, 0x00, 
  0x00, 0x00, 0x00, 0x00, 0x15, 0x00, 0x00, 0x00, 0xe5, 0xf8, 0x36, 0x3b, 
  0x0f, 0xd7, 0x64, 0x3b, 0x5c, 0x24, 0xfa, 0x3a, 0x2f, 0x87, 0x3d, 0x3b, 
  0xe4, 0x5e, 0x24, 0x3b, 0x95, 0x91, 0x37, 0x3b, 0xaa, 0xc2, 0x09, 0x3b, 
  0xfd, 0x30, 0x30, 0x3b, 0xbd, 0x58, 0x30, 0x3b, 0x4e, 0x0b, 0x18, 0x3b, 
  0x0e, 0xb2, 0x29, 0x3b, 0xca, 0x5b, 0x31, 0x3b, 0x4b, 0xb0, 0xf7, 0x3a, 
  0xba, 0x54, 0x23, 0x3b, 0x74, 0x89, 0xa7, 0x3a, 0x99, 0x3e, 0x00, 0x3b, 
  0x5f, 0xcf, 0x06, 0x3b, 0x90, 0x60, 0xad, 0x3a, 0xd8, 0xec, 0x31, 0x3b, 
  0x31, 0xef, 0x28, 0x3b, 0xbe, 0x75, 0x13, 0x3b, 0x11, 0x00, 0x00, 0x00, 
  0x74, 0x66, 0x6c, 0x2e, 0x70, 0x73, 0x65, 0x75, 0x64, 0x6f, 0x5f, 0x71, 
  0x63, 0x6f, 0x6e, 0x73, 0x74, 0x00, 0x00, 0x00, 0x02, 0x00, 0x00, 0x00, 
  0x15, 0x00, 0x00, 0x00, 0xfa, 0x00, 0x00, 0x00, 0x12, 0xfe, 0xff, 0xff, 
  0x00, 0x00, 0x00, 0x01, 0x10, 0x00, 0x00, 0x00, 0x10, 0x00, 0x00, 0x00, 
  0x0d, 0x00, 0x00, 0x00, 0x20, 0x00, 0x00, 0x00, 0xd4, 0xfc, 0xff, 0xff, 
  0x10, 0x00, 0x00, 0x00, 0x61, 0x72, 0x69, 0x74, 0x68, 0x2e, 0x63, 0x6f, 
  0x6e, 0x73, 0x74, 0x61, 0x6e, 0x74, 0x31, 0x31, 0x00, 0x00, 0x00, 0x00, 
  0x02, 0x00, 0x00, 0x00, 0x03, 0x00, 0x00, 0x00, 0x15, 0x00, 0x00, 0x00, 
  0x52, 0xfe, 0xff, 0xff, 0x00, 0x00, 0x00, 0x01, 0x10, 0x00, 0x00, 0x00, 
  0x10, 0x00, 0x00, 0x00, 0x0c, 0x00, 0x00, 0x00, 0x20, 0x00, 0x00, 0x00, 
  0x14, 0xfd, 0xff, 0xff, 0x10, 0x00, 0x00, 0x00, 0x61, 0x72, 0x69, 0x74, 
  0x68, 0x2e, 0x63, 0x6f, 0x6e, 0x73, 0x74, 0x61, 0x6e, 0x74, 0x31, 0x30, 
  0x00, 0x00, 0x00, 0x00, 0x04, 0x00, 0x00, 0x00, 0x0a, 0x00, 0x00, 0x00, 
  0x01, 0x00, 0x00, 0x00, 0x05, 0x00, 0x00, 0x00, 0x02, 0x00, 0x00, 0x00, 
  0x9a, 0xfe, 0xff, 0xff, 0x00, 0x00, 0x00, 0x01, 0x10, 0x00, 0x00, 0x00, 
  0x10, 0x00, 0x00, 0x00, 0x0b, 0x00, 0x00, 0x00, 0x1c, 0x00, 0x00, 0x00, 
  0x5c, 0xfd, 0xff, 0xff, 0x0f, 0x00, 0x00, 0x00, 0x61, 0x72, 0x69, 0x74, 
  0x68, 0x2e, 0x63, 0x6f, 0x6e, 0x73, 0x74, 0x61, 0x6e, 0x74, 0x39, 0x00, 
  0x04, 0x00, 0x00, 0x00, 0x0a, 0x00, 0x00, 0x00, 0x01, 0x00, 0x00, 0x00, 
  0x05, 0x00, 0x00, 0x00, 0x0a, 0x00, 0x00, 0x00, 0x1a, 0xfe, 0xff, 0xff, 
  0x00, 0x00, 0x00, 0x01, 0x14, 0x00, 0x00, 0x00, 0x14, 0x00, 0x00, 0x00, 
  0x0a, 0x00, 0x00, 0x00, 0x00, 0x00, 0x00, 0x02, 0x1c, 0x00, 0x00, 0x00, 
  0xa4, 0xfd, 0xff, 0xff, 0x0f, 0x00, 0x00, 0x00, 0x61, 0x72, 0x69, 0x74, 
  0x68, 0x2e, 0x63, 0x6f, 0x6e, 0x73, 0x74, 0x61, 0x6e, 0x74, 0x38, 0x00, 
  0x01, 0x00, 0x00, 0x00, 0x03, 0x00, 0x00, 0x00, 0x56, 0xfe, 0xff, 0xff, 
  0x00, 0x00, 0x00, 0x01, 0x14, 0x00, 0x00, 0x00, 0x14, 0x00, 0x00, 0x00, 
  0x09, 0x00, 0x00, 0x00, 0x00, 0x00, 0x00, 0x02, 0x1c, 0x00, 0x00, 0x00, 
  0xe0, 0xfd, 0xff, 0xff, 0x0f, 0x00, 0x00, 0x00, 0x61, 0x72, 0x69, 0x74, 
  0x68, 0x2e, 0x63, 0x6f, 0x6e, 0x73, 0x74, 0x61, 0x6e, 0x74, 0x37, 0x00, 
  0x01, 0x00, 0x00, 0x00, 0x03, 0x00, 0x00, 0x00, 0x56, 0xff, 0xff, 0xff, 
  0x00, 0x00, 0x00, 0x01, 0x10, 0x00, 0x00, 0x00, 0x10, 0x00, 0x00, 0x00, 
  0x08, 0x00, 0x00, 0x00, 0x1c, 0x00, 0x00, 0x00, 0x18, 0xfe, 0xff, 0xff, 
  0x0f, 0x00, 0x00, 0x00, 0x61, 0x72, 0x69, 0x74, 0x68, 0x2e, 0x63, 0x6f, 
  0x6e, 0x73, 0x74, 0x61, 0x6e, 0x74, 0x36, 0x00, 0x01, 0x00, 0x00, 0x00, 
  0x0a, 0x00, 0x00, 0x00, 0x8e, 0xff, 0xff, 0xff, 0x00, 0x00, 0x00, 0x01, 
  0x10, 0x00, 0x00, 0x00, 0x10, 0x00, 0x00, 0x00, 0x07, 0x00, 0x00, 0x00, 
  0x1c, 0x00, 0x00, 0x00, 0x50, 0xfe, 0xff, 0xff, 0x0f, 0x00, 0x00, 0x00, 
  0x61, 0x72, 0x69, 0x74, 0x68, 0x2e, 0x63, 0x6f, 0x6e, 0x73, 0x74, 0x61, 
  0x6e, 0x74, 0x35, 0x00, 0x01, 0x00, 0x00, 0x00, 0x0a, 0x00, 0x00, 0x00, 
  0xc6, 0xff, 0xff, 0xff, 0x00, 0x00, 0x00, 0x01, 0x10, 0x00, 0x00, 0x00, 
  0x10, 0x00, 0x00, 0x00, 0x06, 0x00, 0x00, 0x00, 0x1c, 0x00, 0x00, 0x00, 
  0x88, 0xfe, 0xff, 0xff, 0x0f, 0x00, 0x00, 0x00, 0x61, 0x72, 0x69, 0x74, 
  0x68, 0x2e, 0x63, 0x6f, 0x6e, 0x73, 0x74, 0x61, 0x6e, 0x74, 0x34, 0x00, 
  0x01, 0x00, 0x00, 0x00, 0x15, 0x00, 0x00, 0x00, 0x00, 0x00, 0x16, 0x00, 
  0x18, 0x00, 0x14, 0x00, 0x00, 0x00, 0x10, 0x00, 0x0c, 0x00, 0x08, 0x00, 
  0x00, 0x00, 0x00, 0x00, 0x00, 0x00, 0x07, 0x00, 0x16, 0x00, 0x00, 0x00, 
  0x00, 0x00, 0x00, 0x01, 0x10, 0x00, 0x00, 0x00, 0x10, 0x00, 0x00, 0x00, 
  0x05, 0x00, 0x00, 0x00, 0x1c, 0x00, 0x00, 0x00, 0xd8, 0xfe, 0xff, 0xff, 
  0x0f, 0x00, 0x00, 0x00, 0x61, 0x72, 0x69, 0x74, 0x68, 0x2e, 0x63, 0x6f, 
  0x6e, 0x73, 0x74, 0x61, 0x6e, 0x74, 0x33, 0x00, 0x01, 0x00, 0x00, 0x00, 
  0x03, 0x00, 0x00, 0x00, 0x8a, 0xff, 0xff, 0xff, 0x00, 0x00, 0x00, 0x01, 
  0x14, 0x00, 0x00, 0x00, 0x14, 0x00, 0x00, 0x00, 0x04, 0x00, 0x00, 0x00, 
  0x00, 0x00, 0x00, 0x02, 0x1c, 0x00, 0x00, 0x00, 0x14, 0xff, 0xff, 0xff, 
  0x0f, 0x00, 0x00, 0x00, 0x61, 0x72, 0x69, 0x74, 0x68, 0x2e, 0x63, 0x6f, 
  0x6e, 0x73, 0x74, 0x61, 0x6e, 0x74, 0x32, 0x00, 0x00, 0x00, 0x00, 0x00, 
  0xc2, 0xff, 0xff, 0xff, 0x00, 0x00, 0x00, 0x01, 0x14, 0x00, 0x00, 0x00, 
  0x14, 0x00, 0x00, 0x00, 0x03, 0x00, 0x00, 0x00, 0x00, 0x00, 0x00, 0x02, 
  0x1c, 0x00, 0x00, 0x00, 0x4c, 0xff, 0xff, 0xff, 0x0f, 0x00, 0x00, 0x00, 
  0x61, 0x72, 0x69, 0x74, 0x68, 0x2e, 0x63, 0x6f, 0x6e, 0x73, 0x74, 0x61, 
  0x6e, 0x74, 0x31, 0x00, 0x01, 0x00, 0x00, 0x00, 0x02, 0x00, 0x00, 0x00, 
  0x00, 0x00, 0x16, 0x00, 0x1c, 0x00, 0x18, 0x00, 0x17, 0x00, 0x10, 0x00, 
  0x0c, 0x00, 0x08, 0x00, 0x00, 0x00, 0x00, 0x00, 0x00, 0x00, 0x07, 0x00, 
  0x16, 0x00, 0x00, 0x00, 0x00, 0x00, 0x00, 0x01, 0x14, 0x00, 0x00, 0x00, 
  0x14, 0x00, 0x00, 0x00, 0x02, 0x00, 0x00, 0x00, 0x00, 0x00, 0x00, 0x02, 
  0x1c, 0x00, 0x00, 0x00, 0xa0, 0xff, 0xff, 0xff, 0x0e, 0x00, 0x00, 0x00, 
  0x61, 0x72, 0x69, 0x74, 0x68, 0x2e, 0x63, 0x6f, 0x6e, 0x73, 0x74, 0x61, 
  0x6e, 0x74, 0x00, 0x00, 0x00, 0x00, 0x00, 0x00, 0x00, 0x00, 0x16, 0x00, 
  0x1c, 0x00, 0x18, 0x00, 0x00, 0x00, 0x14, 0x00, 0x10, 0x00, 0x0c, 0x00, 
  0x00, 0x00, 0x00, 0x00, 0x08, 0x00, 0x07, 0x00, 0x16, 0x00, 0x00, 0x00, 
  0x00, 0x00, 0x00, 0x01, 0x14, 0x00, 0x00, 0x00, 0x24, 0x00, 0x00, 0x00, 
  0x24, 0x00, 0x00, 0x00, 0x01, 0x00, 0x00, 0x00, 0x40, 0x00, 0x00, 0x00, 
  0x03, 0x00, 0x00, 0x00, 0xff, 0xff, 0xff, 0xff, 0x64, 0x00, 0x00, 0x00, 
  0x02, 0x00, 0x00, 0x00, 0x04, 0x00, 0x04, 0x00, 0x04, 0x00, 0x00, 0x00, 
  0x1d, 0x00, 0x00, 0x00, 0x73, 0x65, 0x72, 0x76, 0x69, 0x6e, 0x67, 0x5f, 
  0x64, 0x65, 0x66, 0x61, 0x75, 0x6c, 0x74, 0x5f, 0x69, 0x6e, 0x70, 0x75, 
  0x74, 0x5f, 0x6c, 0x61, 0x79, 0x65, 0x72, 0x3a, 0x30, 0x00, 0x00, 0x00, 
  0x03, 0x00, 0x00, 0x00, 0x01, 0x00, 0x00, 0x00, 0x64, 0x00, 0x00, 0x00, 
  0x02, 0x00, 0x00, 0x00, 0x06, 0x00, 0x00, 0x00, 0x70, 0x00, 0x00, 0x00, 
  0x54, 0x00, 0x00, 0x00, 0x44, 0x00, 0x00, 0x00, 0x34, 0x00, 0x00, 0x00, 
  0x20, 0x00, 0x00, 0x00, 0x04, 0x00, 0x00, 0x00, 0xb4, 0xff, 0xff, 0xff, 
  0x19, 0x00, 0x00, 0x00, 0x00, 0x00, 0x00, 0x19, 0x0c, 0x00, 0x10, 0x00, 
  0x0f, 0x00, 0x00, 0x00, 0x08, 0x00, 0x04, 0x00, 0x0c, 0x00, 0x00, 0x00, 
  0x09, 0x00, 0x00, 0x00, 0x0c, 0x00, 0x00, 0x00, 0x00, 0x00, 0x00, 0x09, 
  0xdc, 0xff, 0xff, 0xff, 0x11, 0x00, 0x00, 0x00, 0x00, 0x00, 0x00, 0x11, 
  0xe8, 0xff, 0xff, 0xff, 0x16, 0x00, 0x00, 0x00, 0x00, 0x00, 0x00, 0x16, 
  0xf4, 0xff, 0xff, 0xff, 0x03, 0x00, 0x00, 0x00, 0x00, 0x00, 0x00, 0x03, 
  0x0c, 0x00, 0x0c, 0x00, 0x0b, 0x00, 0x00, 0x00, 0x00, 0x00, 0x04, 0x00, 
  0x0c, 0x00, 0x00, 0x00, 0x46, 0x00, 0x00, 0x00, 0x00, 0x00, 0x00, 0x46, 

};
extern const int g_model_len = 13440;

#endif // MODEL_ESP8266_H
