#ifndef MODEL_ESP8266_H
#define MODEL_ESP8266_H

const unsigned char g_model[] = {
  0x1c, 0x00, 0x00, 0x00, 0x54, 0x46, 0x4c, 0x33, 0x14, 0x00, 0x20, 0x00, 
  0x1c, 0x00, 0x18, 0x00, 0x14, 0x00, 0x10, 0x00, 0x0c, 0x00, 0x00, 0x00, 
  0x08, 0x00, 0x04, 0x00, 0x14, 0x00, 0x00, 0x00, 0x1c, 0x00, 0x00, 0x00, 
  0x8c, 0x00, 0x00, 0x00, 0xe4, 0x00, 0x00, 0x00, 0x94, 0x45, 0x00, 0x00, 
  0xa4, 0x45, 0x00, 0x00, 0xf4, 0x57, 0x00, 0x00, 0x03, 0x00, 0x00, 0x00, 
  0x01, 0x00, 0x00, 0x00, 0x04, 0x00, 0x00, 0x00, 0x82, 0xb7, 0xff, 0xff, 
  0x0c, 0x00, 0x00, 0x00, 0x1c, 0x00, 0x00, 0x00, 0x3c, 0x00, 0x00, 0x00, 
  0x0f, 0x00, 0x00, 0x00, 0x73, 0x65, 0x72, 0x76, 0x69, 0x6e, 0x67, 0x5f, 
  0x64, 0x65, 0x66, 0x61, 0x75, 0x6c, 0x74, 0x00, 0x01, 0x00, 0x00, 0x00, 
  0x04, 0x00, 0x00, 0x00, 0x90, 0xff, 0xff, 0xff, 0x1d, 0x00, 0x00, 0x00, 
  0x04, 0x00, 0x00, 0x00, 0x08, 0x00, 0x00, 0x00, 0x6f, 0x75, 0x74, 0x70, 
  0x75, 0x74, 0x5f, 0x30, 0x00, 0x00, 0x00, 0x00, 0x01, 0x00, 0x00, 0x00, 
  0x04, 0x00, 0x00, 0x00, 0x2a, 0xba, 0xff, 0xff, 0x04, 0x00, 0x00, 0x00, 
  0x0d, 0x00, 0x00, 0x00, 0x69, 0x6e, 0x70, 0x75, 0x74, 0x5f, 0x6c, 0x61, 
  0x79, 0x65, 0x72, 0x5f, 0x32, 0x00, 0x00, 0x00, 0x02, 0x00, 0x00, 0x00, 
  0x34, 0x00, 0x00, 0x00, 0x04, 0x00, 0x00, 0x00, 0xdc, 0xff, 0xff, 0xff, 
  0x20, 0x00, 0x00, 0x00, 0x04, 0x00, 0x00, 0x00, 0x13, 0x00, 0x00, 0x00, 
  0x43, 0x4f, 0x4e, 0x56, 0x45, 0x52, 0x53, 0x49, 0x4f, 0x4e, 0x5f, 0x4d, 
  0x45, 0x54, 0x41, 0x44, 0x41, 0x54, 0x41, 0x00, 0x08, 0x00, 0x0c, 0x00, 
  0x08, 0x00, 0x04, 0x00, 0x08, 0x00, 0x00, 0x00, 0x1f, 0x00, 0x00, 0x00, 
  0x04, 0x00, 0x00, 0x00, 0x13, 0x00, 0x00, 0x00, 0x6d, 0x69, 0x6e, 0x5f, 
  0x72, 0x75, 0x6e, 0x74, 0x69, 0x6d, 0x65, 0x5f, 0x76, 0x65, 0x72, 0x73, 
  0x69, 0x6f, 0x6e, 0x00, 0x21, 0x00, 0x00, 0x00, 0xac, 0x44, 0x00, 0x00, 
  0xa4, 0x44, 0x00, 0x00, 0x90, 0x44, 0x00, 0x00, 0x78, 0x44, 0x00, 0x00, 
  0x64, 0x44, 0x00, 0x00, 0xd4, 0x43, 0x00, 0x00, 0xb8, 0x43, 0x00, 0x00, 
  0x68, 0x43, 0x00, 0x00, 0x30, 0x43, 0x00, 0x00, 0x14, 0x43, 0x00, 0x00, 
  0xf8, 0x42, 0x00, 0x00, 0xdc, 0x42, 0x00, 0x00, 0x4c, 0x36, 0x00, 0x00, 
  0xac, 0x34, 0x00, 0x00, 0x1c, 0x33, 0x00, 0x00, 0x0c, 0x01, 0x00, 0x00, 
  0x04, 0x01, 0x00, 0x00, 0xfc, 0x00, 0x00, 0x00, 0xf4, 0x00, 0x00, 0x00, 
  0xec, 0x00, 0x00, 0x00, 0xe4, 0x00, 0x00, 0x00, 0xdc, 0x00, 0x00, 0x00, 
  0xd4, 0x00, 0x00, 0x00, 0xcc, 0x00, 0x00, 0x00, 0xc4, 0x00, 0x00, 0x00, 
  0xbc, 0x00, 0x00, 0x00, 0xb4, 0x00, 0x00, 0x00, 0xac, 0x00, 0x00, 0x00, 
  0xa4, 0x00, 0x00, 0x00, 0x9c, 0x00, 0x00, 0x00, 0x94, 0x00, 0x00, 0x00, 
  0x74, 0x00, 0x00, 0x00, 0x04, 0x00, 0x00, 0x00, 0x2a, 0xbb, 0xff, 0xff, 
  0x04, 0x00, 0x00, 0x00, 0x60, 0x00, 0x00, 0x00, 0x0c, 0x00, 0x00, 0x00, 
  0x08, 0x00, 0x0e, 0x00, 0x08, 0x00, 0x04, 0x00, 0x08, 0x00, 0x00, 0x00, 
  0x10, 0x00, 0x00, 0x00, 0x28, 0x00, 0x00, 0x00, 0x00, 0x00, 0x06, 0x00, 
  0x08, 0x00, 0x04, 0x00, 0x06, 0x00, 0x00, 0x00, 0x04, 0x00, 0x00, 0x00, 
  0x01, 0x00, 0x00, 0x00, 0xea, 0x03, 0x00, 0x00, 0x0c, 0x00, 0x18, 0x00, 
  0x14, 0x00, 0x10, 0x00, 0x0c, 0x00, 0x04, 0x00, 0x0c, 0x00, 0x00, 0x00, 
  0x65, 0x34, 0xc8, 0xab, 0xc1, 0x12, 0x40, 0x2c, 0x02, 0x00, 0x00, 0x00, 
  0x02, 0x00, 0x00, 0x00, 0x04, 0x00, 0x00, 0x00, 0x06, 0x00, 0x00, 0x00, 
  0x32, 0x2e, 0x31, 0x38, 0x2e, 0x30, 0x00, 0x00, 0x96, 0xbb, 0xff, 0xff, 
  0x04, 0x00, 0x00, 0x00, 0x10, 0x00, 0x00, 0x00, 0x32, 0x2e, 0x31, 0x37, 
  0x2e, 0x30, 0x00, 0x00, 0x00, 0x00, 0x00, 0x00, 0x00, 0x00, 0x00, 0x00, 
  0x30, 0xaa, 0xff, 0xff, 0x34, 0xaa, 0xff, 0xff, 0x38, 0xaa, 0xff, 0xff, 
  0x3c, 0xaa, 0xff, 0xff, 0x40, 0xaa, 0xff, 0xff, 0x44, 0xaa, 0xff, 0xff, 
  0x48, 0xaa, 0xff, 0xff, 0x4c, 0xaa, 0xff, 0xff, 0x50, 0xaa, 0xff, 0xff, 
  0x54, 0xaa, 0xff, 0xff, 0x58, 0xaa, 0xff, 0xff, 0x5c, 0xaa, 0xff, 0xff, 
  0x60, 0xaa, 0xff, 0xff, 0x64, 0xaa, 0xff, 0xff, 0x68, 0xaa, 0xff, 0xff, 
  0xee, 0xbb, 0xff, 0xff, 0x04, 0x00, 0x00, 0x00, 0x00, 0x32, 0x00, 0x00, 
  0x42, 0x90, 0xad, 0x96, 0xb9, 0xd7, 0xbd, 0xae, 0xc4, 0x50, 0x1a, 0xe3, 
  0xec, 0x2e, 0x25, 0x42, 0xa5, 0xb5, 0xce, 0xa5, 0x4e, 0x1b, 0x43, 0x65, 
  0x38, 0x3f, 0x3d, 0x20, 0xc9, 0xed, 0x02, 0xd2, 0x9d, 0x5d, 0xe8, 0xad, 
  0x0c, 0x25, 0xe5, 0xea, 0x27, 0x25, 0xe1, 0x0c, 0x45, 0xb2, 0x91, 0xbf, 
  0xcd, 0x37, 0x28, 0x11, 0xd1, 0x8d, 0xd4, 0xd2, 0x5f, 0xee, 0x22, 0x97, 
  0xb6, 0xad, 0x21, 0x34, 0xc0, 0xd8, 0x46, 0xa0, 0xdd, 0x05, 0xcf, 0x45, 
  0x01, 0x58, 0x2b, 0x3f, 0x61, 0xd3, 0xd9, 0x1b, 0x4a, 0xbe, 0xd5, 0x5a, 
  0xf4, 0x5a, 0x3a, 0x62, 0x58, 0xcd, 0xab, 0x2b, 0xde, 0x9a, 0xf5, 0x4c, 
  0x9b, 0x12, 0x59, 0x88, 0xab, 0x07, 0xab, 0x48, 0xe5, 0x48, 0x56, 0xb5, 
  0xfd, 0xbc, 0xf9, 0xc9, 0x16, 0x17, 0x24, 0xcf, 0xa7, 0xad, 0x99, 0x3a, 
  0x3c, 0x34, 0xfa, 0x5c, 0x5d, 0x95, 0x13, 0x51, 0xd7, 0x15, 0xcf, 0xa3, 
  0xdb, 0x0a, 0xba, 0x41, 0x0a, 0xd6, 0xc7, 0x39, 0xb4, 0xfe, 0x36, 0x82, 
  0x0c, 0x0d, 0x3f, 0x47, 0x10, 0x08, 0x0f, 0xdc, 0x57, 0xc8, 0xa4, 0x08, 
  0xbd, 0xd4, 0x0c, 0x6c, 0xaa, 0x93, 0xd8, 0x4c, 0x93, 0x89, 0x64, 0xc6, 
  0xeb, 0xb4, 0x12, 0x4b, 0xbb, 0x33, 0x1b, 0xcf, 0x10, 0xaf, 0x14, 0xe2, 
  0xd9, 0x95, 0x17, 0x42, 0xb6, 0x0f, 0x9a, 0x37, 0xdd, 0x5c, 0x2d, 0x61, 
  0xeb, 0x0c, 0x98, 0x67, 0x27, 0x1b, 0x84, 0x1f, 0x20, 0xf8, 0xde, 0xc9, 
  0x97, 0x36, 0x60, 0xa7, 0xf9, 0x01, 0x34, 0xd2, 0x5b, 0x09, 0xc9, 0xcc, 
  0x09, 0x9e, 0xe8, 0x43, 0xdf, 0xfa, 0x1c, 0xc7, 0x29, 0xe1, 0xb7, 0x3b, 
  0xa6, 0x87, 0x94, 0x08, 0x19, 0xec, 0xcb, 0x5c, 0x90, 0x5c, 0xfe, 0x5f, 
  0x31, 0xcc, 0x44, 0xa7, 0xfb, 0x9d, 0x05, 0x29, 0xd8, 0x41, 0xf0, 0x32, 
  0x1b, 0x40, 0x3b, 0xe5, 0x45, 0x34, 0x4c, 0x59, 0x0c, 0xfc, 0xec, 0xfc, 
  0xc2, 0xea, 0xd3, 0x2b, 0x51, 0xcc, 0xaf, 0x49, 0x88, 0x8f, 0x05, 0x8b, 
  0xcb, 0xba, 0xa9, 0x8a, 0x1c, 0x14, 0xa4, 0xae, 0x8e, 0xcd, 0xdb, 0x51, 
  0xaa, 0x3e, 0x32, 0x00, 0xd8, 0x97, 0xde, 0xc6, 0xcf, 0x0f, 0xb4, 0xe9, 
  0x38, 0xb6, 0x04, 0x62, 0xcf, 0xd7, 0x30, 0x08, 0x9a, 0x39, 0xd7, 0xd0, 
  0xbb, 0x05, 0x5a, 0x40, 0x15, 0x8c, 0x27, 0xaa, 0xee, 0xb8, 0xb0, 0xf3, 
  0x38, 0x2f, 0xa2, 0xed, 0x60, 0x07, 0x99, 0x4c, 0x1c, 0x01, 0x81, 0x63, 
  0x35, 0xf5, 0x97, 0x55, 0x2c, 0xc5, 0xb3, 0x92, 0x09, 0x49, 0x51, 0x0f, 
  0x4c, 0xc5, 0x2e, 0x8c, 0xf1, 0x5e, 0xea, 0xec, 0x18, 0x95, 0x3b, 0x8a, 
  0x08, 0xb3, 0xde, 0x99, 0xa3, 0x5d, 0x94, 0xd3, 0x19, 0x34, 0xda, 0x9e, 
  0x2c, 0x16, 0x3b, 0xce, 0x45, 0xc7, 0x1d, 0x2a, 0x58, 0x0c, 0xf7, 0xee, 
  0x1f, 0x58, 0xba, 0x1b, 0x53, 0xa6, 0xec, 0x8f, 0x94, 0xa8, 0x51, 0xc5, 
  0x55, 0xc7, 0xe0, 0xe0, 0x02, 0xd3, 0xd4, 0x3f, 0xd3, 0x23, 0x99, 0x2d, 
  0xd9, 0xff, 0x2b, 0xf3, 0x3d, 0xdb, 0x00, 0x0b, 0xe7, 0xa3, 0xd2, 0xf5, 
  0x31, 0xdc, 0x96, 0x2a, 0x28, 0xc4, 0xd5, 0x53, 0x23, 0x28, 0x43, 0xe0, 
  0xdf, 0x9f, 0xbd, 0x0d, 0x28, 0x07, 0xd9, 0x0c, 0xcb, 0x29, 0x32, 0xe3, 
  0xca, 0x45, 0xdf, 0xbe, 0x74, 0xbc, 0xfc, 0xf9, 0x0d, 0xb3, 0xc3, 0xbd, 
  0x02, 0x09, 0x3d, 0xd5, 0x18, 0x4a, 0x1a, 0x3c, 0x44, 0xaa, 0xe6, 0xf1, 
  0x06, 0x9f, 0x12, 0x2d, 0xeb, 0x19, 0x23, 0xac, 0xb6, 0x28, 0xf0, 0xf8, 
  0xfc, 0xcf, 0x17, 0x15, 0xf7, 0x45, 0x57, 0x67, 0xef, 0xff, 0xea, 0x35, 
  0x0e, 0xef, 0xae, 0x3d, 0x2e, 0x42, 0x14, 0x5b, 0x20, 0x0a, 0xda, 0x25, 
  0x22, 0xef, 0xd8, 0x0e, 0xdf, 0x01, 0xd4, 0x33, 0x07, 0x3d, 0x92, 0x27, 
  0x32, 0xff, 0x15, 0x1e, 0xe7, 0x02, 0xe4, 0x6e, 0xf8, 0x1a, 0x13, 0x62, 
  0xc8, 0x4e, 0xb1, 0x20, 0xda, 0x3a, 0xfb, 0xca, 0xbe, 0xda, 0x26, 0x0a, 
  0x37, 0xe5, 0xd0, 0x19, 0xe1, 0x1e, 0x09, 0xdd, 0xb1, 0x4e, 0xda, 0x12, 
  0x81, 0x22, 0x13, 0x01, 0x3f, 0xcd, 0x30, 0xbf, 0x1c, 0xb4, 0x0f, 0xeb, 
  0xda, 0xdf, 0xac, 0xad, 0xd9, 0x1d, 0x3c, 0xce, 0x29, 0xe6, 0xee, 0xe7, 
  0x56, 0xca, 0xc0, 0xd4, 0xbc, 0xdb, 0xef, 0xd9, 0x0b, 0x37, 0xe6, 0xae, 
  0xbd, 0x40, 0xf9, 0x15, 0x4d, 0x90, 0x90, 0xea, 0xf1, 0xf7, 0x47, 0x03, 
  0x18, 0xe7, 0xc5, 0xb6, 0xe1, 0xd8, 0xab, 0x6c, 0x2d, 0xd4, 0xd2, 0x05, 
  0x18, 0x00, 0x28, 0x4a, 0x22, 0xe9, 0xc1, 0x96, 0xae, 0x27, 0x16, 0x3d, 
  0x2e, 0xd5, 0x02, 0x12, 0x22, 0x59, 0x01, 0x34, 0xcc, 0x48, 0x1f, 0xe7, 
  0x05, 0xea, 0xf6, 0x49, 0xe4, 0xf0, 0xca, 0xf6, 0x16, 0x1c, 0xff, 0x61, 
  0xc2, 0x19, 0xf6, 0xe0, 0xfb, 0x16, 0x61, 0x29, 0xa8, 0x53, 0xb9, 0x4b, 
  0x44, 0x3e, 0x1d, 0xb1, 0x9b, 0xca, 0xf4, 0x7f, 0x01, 0xef, 0xfe, 0xd1, 
  0xbf, 0xb3, 0xae, 0x1e, 0x1d, 0x1f, 0xe1, 0xa5, 0xf9, 0xe9, 0xdc, 0xe1, 
  0x2a, 0x2c, 0xd1, 0xcf, 0x04, 0xfa, 0x95, 0xe1, 0x09, 0xaf, 0x1c, 0xe4, 
  0xbb, 0xd9, 0x01, 0x16, 0x1d, 0x00, 0x06, 0x4a, 0x39, 0xf8, 0xa5, 0xda, 
  0xab, 0xab, 0xfa, 0x03, 0xb5, 0x4a, 0xdf, 0x89, 0xb2, 0xfd, 0xcd, 0x4e, 
  0x16, 0xf6, 0x81, 0xcb, 0xee, 0x23, 0x1e, 0x0e, 0x07, 0xcb, 0xe4, 0x15, 
  0xb6, 0x24, 0xd5, 0x37, 0x40, 0xcd, 0xe1, 0x1a, 0x0c, 0x3b, 0x49, 0x2d, 
  0xe0, 0xe6, 0xcc, 0x9a, 0x10, 0xd8, 0xa8, 0x67, 0x20, 0x46, 0xf5, 0x3c, 
  0x29, 0x14, 0x22, 0xf1, 0x29, 0x34, 0xbe, 0xee, 0x1c, 0xdc, 0xb0, 0x3e, 
  0xb5, 0x19, 0xe8, 0x52, 0xf1, 0x10, 0x00, 0xf9, 0xde, 0xe6, 0x02, 0x20, 
  0xfd, 0xbd, 0xea, 0x10, 0xf9, 0xdc, 0xfe, 0x6a, 0x60, 0x4a, 0xeb, 0xc6, 
  0x1e, 0xd7, 0x2e, 0xe1, 0x2d, 0xee, 0x02, 0x4a, 0xf0, 0x07, 0xc0, 0x22, 
  0x12, 0x06, 0x31, 0xd4, 0x03, 0xf0, 0xff, 0x07, 0xff, 0x3a, 0x0c, 0x23, 
  0x34, 0x2f, 0xd5, 0x2b, 0x06, 0xdb, 0x23, 0x48, 0xc1, 0x0c, 0xef, 0x12, 
  0xe2, 0xd1, 0xae, 0x08, 0x0f, 0x21, 0xce, 0xdc, 0x26, 0x54, 0xdc, 0x01, 
  0xdb, 0x00, 0xde, 0x7f, 0x19, 0x06, 0x23, 0xe5, 0xf1, 0x4a, 0x01, 0x1f, 
  0x54, 0xfa, 0xc8, 0xe6, 0xe0, 0xc0, 0x18, 0x11, 0x29, 0xcd, 0xe5, 0x0c, 
  0xd5, 0x33, 0x0a, 0x38, 0x06, 0xe5, 0xf0, 0x14, 0xda, 0xc5, 0xc2, 0x3a, 
  0x38, 0xfe, 0xdd, 0xf5, 0x2a, 0xe5, 0xcb, 0x2a, 0x3b, 0xd6, 0xec, 0xa8, 
  0xba, 0x25, 0xf5, 0x39, 0x2f, 0xe7, 0xe4, 0xc4, 0x12, 0xff, 0x21, 0x0d, 
  0xf9, 0x15, 0xec, 0xe1, 0xd6, 0xf3, 0x16, 0x1a, 0xc1, 0x24, 0xda, 0x33, 
  0xc0, 0x05, 0xd6, 0xd8, 0x0c, 0xe6, 0x0b, 0x22, 0xed, 0x11, 0xc4, 0x40, 
  0xfa, 0x24, 0xf1, 0x2d, 0xfb, 0x2e, 0xf3, 0x46, 0x47, 0xcf, 0x2f, 0x2c, 
  0xe8, 0x42, 0x3e, 0x35, 0xe8, 0x3a, 0xe3, 0x29, 0xf6, 0xdb, 0xc0, 0x2b, 
  0x31, 0x07, 0xe0, 0x3e, 0x2a, 0x13, 0xe2, 0x72, 0xcb, 0x12, 0xb3, 0xef, 
  0x12, 0xe9, 0xe0, 0x2a, 0xf8, 0xdc, 0xef, 0x16, 0x2c, 0x13, 0xd9, 0x5c, 
  0x09, 0x20, 0xcb, 0x0e, 0x2d, 0x5a, 0x38, 0x3a, 0x4b, 0x5c, 0x41, 0x47, 
  0x9b, 0xe2, 0xe6, 0x29, 0x04, 0xdd, 0xd7, 0x2f, 0xe9, 0xd5, 0x3f, 0x1f, 
  0xf0, 0x0d, 0x1b, 0xec, 0x06, 0xdd, 0xcd, 0x0d, 0xf6, 0xe2, 0xd1, 0x33, 
  0x17, 0x3a, 0x43, 0x19, 0xd2, 0x1b, 0xc5, 0x1b, 0xcf, 0x3b, 0xcb, 0x2a, 
  0xfc, 0x18, 0xd2, 0x07, 0x41, 0x1c, 0x30, 0x00, 0xdf, 0xfa, 0xc0, 0xc6, 
  0x23, 0xd0, 0x1e, 0x5a, 0xef, 0x4d, 0xc8, 0x3e, 0x1e, 0xf7, 0xe2, 0xf8, 
  0x0b, 0x09, 0xec, 0xd5, 0xda, 0xef, 0x0f, 0x1f, 0x27, 0x10, 0xd9, 0x0a, 
  0xe1, 0x19, 0x9f, 0x34, 0xf6, 0xfb, 0x1a, 0x24, 0xf1, 0x18, 0x25, 0x51, 
  0x0c, 0xe5, 0xaa, 0x33, 0x49, 0x3f, 0x2f, 0xf5, 0xcc, 0xed, 0xbd, 0xc9, 
  0xf8, 0x06, 0x25, 0x1e, 0x2d, 0xdc, 0x2a, 0xe4, 0x17, 0x41, 0x45, 0x02, 
  0xcd, 0x11, 0x2c, 0x01, 0x05, 0x2e, 0xed, 0x13, 0x26, 0xf9, 0xcf, 0x57, 
  0xf3, 0x4e, 0x33, 0xe7, 0x0e, 0x61, 0x3e, 0x29, 0x26, 0x1b, 0xc0, 0xed, 
  0x45, 0xf8, 0xb5, 0x76, 0xc2, 0x25, 0xf4, 0xfd, 0x39, 0x4c, 0x50, 0xf8, 
  0x11, 0x24, 0xc6, 0x2c, 0xe4, 0xca, 0x20, 0x32, 0xe5, 0x60, 0x08, 0x57, 
  0x00, 0x56, 0xe1, 0xef, 0xe0, 0xd7, 0xec, 0x6e, 0x01, 0xea, 0xe2, 0xfe, 
  0x35, 0xb9, 0xc6, 0xf0, 0xcc, 0xe5, 0xbe, 0xb8, 0xef, 0x04, 0xc7, 0x11, 
  0x26, 0xf1, 0xd6, 0x0c, 0x43, 0xb7, 0xdc, 0x2a, 0xb4, 0xcc, 0xfc, 0xa5, 
  0xc3, 0x08, 0x07, 0xea, 0x2c, 0xf8, 0xc5, 0xfd, 0x10, 0x2f, 0x86, 0xff, 
  0xc4, 0xe1, 0x1e, 0xdf, 0xe1, 0x31, 0xd0, 0xd2, 0x06, 0xc1, 0x23, 0x39, 
  0xe7, 0x7c, 0x1f, 0xf1, 0x37, 0x05, 0xf7, 0x35, 0xd1, 0x15, 0xd0, 0x41, 
  0x4b, 0xf0, 0xce, 0xe4, 0x3d, 0xe3, 0x58, 0xc0, 0xdc, 0x05, 0xe1, 0xf7, 
  0x58, 0x03, 0x35, 0xab, 0xc0, 0x14, 0x07, 0x49, 0x2c, 0xdc, 0xf7, 0xa6, 
  0xbb, 0x1f, 0x12, 0xff, 0xee, 0x3e, 0xd8, 0xaf, 0x22, 0xdc, 0x1f, 0x09, 
  0xbe, 0x1a, 0xd7, 0xc9, 0xc7, 0x17, 0x23, 0x37, 0xdf, 0xf1, 0x1c, 0xd3, 
  0x03, 0xcb, 0x22, 0x03, 0xa6, 0xf2, 0xb8, 0xda, 0x20, 0xdc, 0x09, 0x28, 
  0xf6, 0xec, 0x21, 0x0d, 0x16, 0xca, 0x00, 0xce, 0xad, 0xff, 0x16, 0x20, 
  0xe8, 0xd9, 0x3b, 0xf6, 0xf9, 0xec, 0x10, 0xce, 0xf3, 0x42, 0x46, 0xcb, 
  0x12, 0x10, 0x7c, 0x26, 0x0d, 0xe4, 0xe9, 0x1f, 0xf3, 0xf5, 0x0d, 0xea, 
  0xf4, 0x56, 0x4f, 0xef, 0xcd, 0x0e, 0x4b, 0xda, 0xcf, 0x1f, 0x10, 0x1d, 
  0x33, 0xfc, 0xcd, 0xce, 0x3e, 0xf2, 0x31, 0x0b, 0xf7, 0x38, 0x3a, 0xef, 
  0xdc, 0xbf, 0xf1, 0x53, 0x4d, 0x3b, 0xe6, 0xee, 0x40, 0xec, 0x3b, 0x15, 
  0xc0, 0xe1, 0x17, 0xb2, 0x1b, 0x09, 0x41, 0x11, 0x0c, 0x4a, 0x26, 0xc3, 
  0xdb, 0x4b, 0x2a, 0x20, 0x02, 0x57, 0x36, 0xbc, 0x3b, 0xe5, 0xcc, 0x21, 
  0x02, 0x2a, 0xf2, 0x03, 0xe1, 0x5e, 0x5e, 0xf4, 0x29, 0x4c, 0x74, 0xd4, 
  0x3c, 0xb3, 0xd8, 0x2d, 0x1a, 0xd7, 0xf7, 0x2a, 0xf0, 0x2d, 0x4e, 0x18, 
  0xe9, 0x3d, 0x0d, 0xc0, 0xde, 0xd2, 0xe6, 0xf8, 0x27, 0xf1, 0x19, 0xd6, 
  0xd7, 0x0c, 0xdb, 0xea, 0x1e, 0x3b, 0xcb, 0xfc, 0x0c, 0xca, 0x4c, 0x13, 
  0xfc, 0x0b, 0x09, 0xcc, 0xe3, 0xce, 0xd2, 0xea, 0xe6, 0x15, 0x8b, 0xc4, 
  0xe9, 0xcd, 0xd3, 0x47, 0x39, 0xe6, 0x40, 0xec, 0xef, 0xb9, 0xd5, 0xe6, 
  0x87, 0xf3, 0x21, 0xc2, 0x41, 0x28, 0xe2, 0x07, 0x21, 0xac, 0x12, 0x17, 
  0xdc, 0x9d, 0x21, 0xca, 0xca, 0xd2, 0x28, 0x27, 0x2d, 0x07, 0xdd, 0xd1, 
  0xcf, 0xad, 0x35, 0x13, 0x3c, 0x46, 0x73, 0x0d, 0x1a, 0x38, 0x0f, 0xd0, 
  0xf1, 0xe3, 0x07, 0x0d, 0xdf, 0x30, 0xdd, 0x1f, 0x35, 0x21, 0x43, 0xef, 
  0xca, 0xe4, 0x56, 0xeb, 0xde, 0x27, 0xe3, 0xf8, 0x59, 0x1d, 0x1d, 0x48, 
  0xf2, 0xe9, 0x0e, 0x09, 0x29, 0xd2, 0x2d, 0x07, 0x4e, 0xda, 0xfc, 0x1e, 
  0xea, 0x07, 0xd7, 0xcc, 0x11, 0x22, 0x3b, 0xf7, 0x0b, 0x0b, 0x24, 0xe1, 
  0xed, 0x38, 0x37, 0x2a, 0xee, 0x17, 0xfd, 0x3d, 0x03, 0x25, 0xe5, 0x0c, 
  0x20, 0xda, 0x7f, 0xaf, 0xf2, 0x09, 0xd9, 0xe9, 0x52, 0x34, 0xfb, 0xd8, 
  0x4c, 0x57, 0x59, 0xa5, 0x10, 0xcb, 0x55, 0xd4, 0xd4, 0xd4, 0x03, 0x45, 
  0x35, 0xfc, 0x38, 0x12, 0xd6, 0x64, 0x4e, 0x1b, 0x1c, 0xf2, 0x3d, 0xd1, 
  0x0b, 0xb4, 0xfa, 0x43, 0x0b, 0x21, 0x41, 0xf4, 0x26, 0xf4, 0xd5, 0xa0, 
  0xda, 0x43, 0x2d, 0xdb, 0xbf, 0x03, 0x46, 0xda, 0x22, 0xf2, 0x03, 0xf9, 
  0xcb, 0x11, 0x11, 0xa2, 0xfa, 0x43, 0x32, 0x39, 0x1a, 0xf4, 0x26, 0xfa, 
  0x1b, 0x0d, 0x2b, 0xea, 0xff, 0xf0, 0xf9, 0xe2, 0xdb, 0x28, 0x1c, 0xcd, 
  0x22, 0xff, 0x17, 0x1d, 0x48, 0xee, 0xf9, 0xd1, 0xd2, 0x23, 0x30, 0x2e, 
  0xf9, 0xff, 0x04, 0x1c, 0xf8, 0x27, 0x24, 0x48, 0x12, 0xfe, 0xfd, 0xc6, 
  0xde, 0xca, 0xf9, 0x1b, 0x24, 0xef, 0x07, 0x24, 0xeb, 0x3f, 0xe1, 0x42, 
  0xeb, 0xd0, 0xdf, 0xf1, 0xda, 0x1d, 0x4b, 0xc6, 0xfb, 0x1a, 0x1a, 0xc8, 
  0x06, 0xe8, 0x2a, 0xe0, 0x38, 0x10, 0x0d, 0xca, 0x28, 0xd4, 0x07, 0x16, 
  0x2b, 0xc5, 0x60, 0xe3, 0xf0, 0x2b, 0x0f, 0xfc, 0x05, 0xe0, 0x24, 0x9e, 
  0xd2, 0x2d, 0x17, 0xf7, 0x15, 0x15, 0x32, 0x9e, 0x01, 0xef, 0x08, 0x33, 
  0x49, 0x1f, 0x37, 0xbe, 0xe0, 0x27, 0x17, 0xd4, 0x32, 0xd0, 0x39, 0x0a, 
  0xf6, 0xd2, 0xea, 0x1e, 0x2c, 0xff, 0x1f, 0x81, 0x25, 0xd4, 0x27, 0x0a, 
  0xc5, 0xe5, 0x0b, 0xb2, 0x23, 0x1a, 0x3e, 0x0c, 0x0f, 0x3f, 0x23, 0xb7, 
  0x00, 0x11, 0x0f, 0xb7, 0xe1, 0xce, 0x33, 0xe5, 0xfa, 0x02, 0xe0, 0x3f, 
  0x42, 0x1a, 0xea, 0x07, 0x1e, 0xfd, 0x33, 0x02, 0xfb, 0xf3, 0x5a, 0xf0, 
  0xe2, 0x09, 0x4e, 0x45, 0x46, 0x18, 0x18, 0x01, 0xd7, 0x17, 0x2c, 0x1b, 
  0x10, 0xce, 0x5a, 0xb4, 0x27, 0xd7, 0xea, 0x02, 0x5d, 0x1d, 0x25, 0xdd, 
  0x0c, 0x1c, 0x51, 0x07, 0x30, 0x14, 0xec, 0x0c, 0x32, 0xf7, 0x2b, 0xd5, 
  0xf7, 0xee, 0x1c, 0xf3, 0xf7, 0xe5, 0x57, 0x10, 0xf9, 0x02, 0xfb, 0xa3, 
  0x2e, 0xef, 0x46, 0xe7, 0x5c, 0xec, 0xdc, 0xd3, 0x2b, 0xcc, 0xe1, 0xe7, 
  0xcb, 0xd2, 0x31, 0xef, 0xf3, 0xf1, 0x3c, 0x21, 0x25, 0x2f, 0xca, 0xf7, 
  0x17, 0xd8, 0x33, 0xd2, 0xf5, 0xdf, 0x15, 0xf9, 0xd8, 0x24, 0x36, 0x15, 
  0xeb, 0x16, 0x13, 0xdf, 0xc5, 0xca, 0x2c, 0xe6, 0x02, 0xdb, 0x1f, 0x0d, 
  0x07, 0xcb, 0x37, 0xf6, 0x16, 0xdf, 0xf5, 0xa9, 0xd4, 0xe1, 0xf9, 0xc1, 
  0x1d, 0x14, 0x2b, 0xfa, 0x44, 0xcc, 0xfd, 0x0b, 0x57, 0xeb, 0x12, 0xf7, 
  0xee, 0x2f, 0x39, 0xec, 0x1f, 0x3b, 0x35, 0xe2, 0xef, 0x0e, 0x2a, 0xf3, 
  0xdb, 0x0d, 0x0a, 0x02, 0x0e, 0x1a, 0xfc, 0xae, 0xf4, 0xe4, 0x43, 0x13, 
  0x14, 0x17, 0xd4, 0x2e, 0x16, 0x29, 0xc7, 0x03, 0x26, 0x20, 0x20, 0xd4, 
  0xfe, 0xc3, 0x26, 0x1c, 0x08, 0xbb, 0xc0, 0xec, 0x21, 0x38, 0xc8, 0xd1, 
  0xfd, 0x12, 0x15, 0xfe, 0xfe, 0xc0, 0x08, 0xe8, 0xec, 0xc7, 0xcb, 0x2b, 
  0x16, 0xf6, 0xcd, 0xce, 0xdd, 0x3b, 0xf1, 0xed, 0x32, 0x16, 0x35, 0xd2, 
  0x2b, 0xc0, 0x01, 0x1a, 0x06, 0xdc, 0xd9, 0xd8, 0xfe, 0x1a, 0x16, 0xbe, 
  0xec, 0xf5, 0x1b, 0x9e, 0x04, 0xbb, 0x09, 0xeb, 0x15, 0xee, 0x36, 0xdb, 
  0xd5, 0xec, 0xd5, 0xae, 0xeb, 0x2a, 0x16, 0x07, 0x2f, 0xf5, 0x26, 0xe0, 
  0xfb, 0xd6, 0x23, 0x1e, 0xbe, 0xf5, 0xc4, 0xd2, 0x3f, 0x36, 0xfa, 0xb0, 
  0x15, 0xe2, 0x04, 0x0b, 0x1a, 0xd3, 0x22, 0x21, 0xa5, 0xfd, 0xbc, 0x39, 
  0xd0, 0x2a, 0xed, 0xae, 0x0a, 0xa7, 0x2e, 0xef, 0x23, 0xde, 0x07, 0xde, 
  0x15, 0xf5, 0xeb, 0xe8, 0xef, 0x3a, 0x04, 0xbc, 0xe6, 0x1b, 0xf5, 0x3f, 
  0xec, 0x19, 0xca, 0xc2, 0xf1, 0xe3, 0xbf, 0xcd, 0x0b, 0x12, 0x0e, 0x35, 
  0x27, 0x1d, 0x3a, 0xc9, 0x14, 0xe9, 0xff, 0xc1, 0xe6, 0xd2, 0x05, 0xcd, 
  0xe5, 0xd2, 0x10, 0xef, 0x42, 0x0a, 0xf3, 0xf9, 0x15, 0x05, 0xf5, 0x1e, 
  0x1c, 0xfc, 0x50, 0xd7, 0x00, 0xe5, 0x05, 0xed, 0xf2, 0x36, 0xe8, 0x00, 
  0x1a, 0x20, 0x40, 0xa9, 0x40, 0xe4, 0xf2, 0xfe, 0x3a, 0xd1, 0x6e, 0x0d, 
  0xed, 0xf1, 0x4d, 0x2e, 0x68, 0xec, 0x31, 0xc4, 0xd2, 0xe2, 0x38, 0xe1, 
  0xf4, 0x10, 0x31, 0x08, 0x09, 0xc2, 0xfb, 0xe1, 0x21, 0x2b, 0xf1, 0xba, 
  0xdd, 0x08, 0x45, 0x1f, 0x0e, 0xcd, 0x25, 0x18, 0x25, 0x02, 0x31, 0x3b, 
  0x2d, 0x07, 0xee, 0xfd, 0x2d, 0x5e, 0x0c, 0x0b, 0xdf, 0xf0, 0x27, 0xf3, 
  0xfc, 0xc1, 0xec, 0xf3, 0x07, 0x1b, 0xc1, 0xfd, 0x09, 0x4a, 0x37, 0x2c, 
  0x63, 0x0c, 0x26, 0xe4, 0x12, 0xbc, 0x22, 0xe6, 0x1b, 0x1a, 0xe4, 0x81, 
  0xd8, 0xd5, 0xea, 0x07, 0xc8, 0xf4, 0xda, 0xb5, 0xf0, 0xc0, 0x57, 0xd2, 
  0x0d, 0x29, 0x1b, 0x24, 0xcf, 0xeb, 0xec, 0xc8, 0xd1, 0xd3, 0xa2, 0x12, 
  0xda, 0x09, 0xdb, 0x09, 0x1f, 0xc9, 0xc4, 0xdd, 0xe8, 0xfe, 0xec, 0xe7, 
  0xda, 0xed, 0xbc, 0xaf, 0x07, 0x07, 0x3c, 0x15, 0xd7, 0xda, 0xf5, 0xd9, 
  0x2a, 0xb8, 0x4e, 0xf6, 0x0a, 0xf0, 0x1e, 0xc5, 0x32, 0xde, 0x09, 0x1b, 
  0x06, 0xe8, 0xef, 0xb4, 0x2a, 0x09, 0x0e, 0x06, 0xf4, 0xed, 0x1c, 0xd6, 
  0xe0, 0xe6, 0xfe, 0x02, 0x55, 0x06, 0xe3, 0xe7, 0xf7, 0xfe, 0x35, 0xa6, 
  0x46, 0x18, 0x49, 0xf9, 0x18, 0x47, 0x24, 0xee, 0x54, 0x12, 0x09, 0xcb, 
  0xee, 0x21, 0x2a, 0xc6, 0x49, 0xe2, 0x1f, 0x17, 0x01, 0x14, 0xf9, 0xfc, 
  0x68, 0x51, 0x00, 0xdb, 0x0e, 0xf8, 0x23, 0xc9, 0x36, 0x1c, 0x10, 0x1c, 
  0x0c, 0xd9, 0xde, 0x0f, 0x54, 0xf3, 0xea, 0xc6, 0x08, 0xfc, 0x04, 0xbe, 
  0x3f, 0xf1, 0x15, 0xde, 0x01, 0xed, 0x44, 0x08, 0xe8, 0x37, 0x34, 0xb9, 
  0xea, 0x45, 0x28, 0xda, 0x3d, 0xe9, 0x41, 0xac, 0x23, 0xdf, 0x32, 0xe6, 
  0x0d, 0xd4, 0x10, 0xf2, 0x0b, 0xfc, 0x0e, 0xeb, 0x05, 0x05, 0xe3, 0xbe, 
  0xd1, 0xc5, 0x33, 0xda, 0x4f, 0x3e, 0x42, 0xed, 0xbc, 0xe2, 0xe9, 0xbf, 
  0xee, 0xe2, 0xa6, 0x94, 0x20, 0xdd, 0x07, 0x48, 0x26, 0x1b, 0xe8, 0xd1, 
  0x92, 0xcb, 0xd2, 0xb1, 0xdc, 0xfb, 0x90, 0xff, 0x09, 0xe3, 0x0e, 0xdf, 
  0xea, 0x18, 0x3f, 0xb7, 0xb3, 0x20, 0x2a, 0xf7, 0xdf, 0xfb, 0xe7, 0x41, 
  0x3a, 0x32, 0xb1, 0x33, 0xbd, 0x23, 0x15, 0x53, 0xcb, 0xce, 0x00, 0xe0, 
  0xd5, 0x03, 0x2e, 0xf9, 0x48, 0x06, 0xc7, 0xf1, 0x11, 0xc5, 0xc4, 0x0d, 
  0xe7, 0xe7, 0x0a, 0x06, 0xd1, 0x2c, 0x50, 0xe6, 0x36, 0xd6, 0x26, 0x38, 
  0x40, 0xf5, 0x30, 0x30, 0xcb, 0x02, 0xd3, 0xd4, 0x21, 0x5b, 0x14, 0x04, 
  0xcc, 0xf3, 0xcb, 0x1e, 0x1c, 0xf6, 0xd7, 0x0b, 0xe8, 0x49, 0x19, 0x34, 
  0x52, 0x02, 0x05, 0xeb, 0xd3, 0x1e, 0x14, 0xd3, 0x51, 0xf8, 0xcf, 0xe8, 
  0xd3, 0x00, 0xd9, 0x41, 0x0c, 0x54, 0xfd, 0xf2, 0x02, 0x3c, 0xef, 0xff, 
  0x16, 0x22, 0x37, 0x46, 0x3f, 0x15, 0x17, 0x06, 0x43, 0xf1, 0x08, 0xd2, 
  0xe7, 0xee, 0xd2, 0xd7, 0xed, 0xe6, 0xd5, 0xf0, 0xf1, 0x56, 0x1f, 0x33, 
  0x20, 0x3b, 0x2a, 0x22, 0xea, 0xb7, 0xee, 0xf9, 0x04, 0xe7, 0x16, 0x35, 
  0xc4, 0x49, 0xf3, 0x4c, 0x50, 0xff, 0xcc, 0x02, 0x32, 0xe9, 0xea, 0x12, 
  0xf5, 0x39, 0xe1, 0xdb, 0xe7, 0x30, 0x19, 0x3d, 0x08, 0x17, 0x28, 0x31, 
  0x53, 0xf8, 0xb8, 0x47, 0xef, 0x25, 0xe1, 0x53, 0x43, 0x2b, 0xdb, 0x33, 
  0x05, 0xf2, 0xd4, 0x0e, 0x49, 0x30, 0xfd, 0xc6, 0x3e, 0xbc, 0x3d, 0x59, 
  0xde, 0x3f, 0x1e, 0x0e, 0x0d, 0x08, 0xe9, 0x21, 0xe2, 0xbf, 0xe7, 0xef, 
  0x03, 0xd8, 0x04, 0x38, 0x28, 0x32, 0xf8, 0xdc, 0xdf, 0xda, 0x76, 0xa6, 
  0xca, 0xf9, 0x3b, 0xe8, 0x17, 0x3e, 0xeb, 0x48, 0xde, 0xf0, 0xce, 0xf5, 
  0xfa, 0x47, 0xe8, 0x00, 0x22, 0xff, 0xfe, 0x22, 0x2e, 0x36, 0xef, 0xf7, 
  0x02, 0xe6, 0x24, 0x3d, 0xe0, 0x30, 0x3e, 0xe3, 0xfe, 0x16, 0xcd, 0xe4, 
  0xc0, 0xb6, 0x27, 0x65, 0xea, 0x1f, 0x17, 0xe1, 0xee, 0x60, 0xd3, 0x33, 
  0xf2, 0x56, 0xe2, 0x3f, 0x90, 0x20, 0x17, 0x4a, 0x1b, 0xa1, 0x0e, 0x95, 
  0x21, 0xdc, 0xc0, 0x34, 0xf5, 0x03, 0xd7, 0xac, 0xaa, 0xdb, 0x0f, 0x6f, 
  0x02, 0xe1, 0xf3, 0xd2, 0x0f, 0x22, 0x05, 0xe9, 0x24, 0x2e, 0xf7, 0xdd, 
  0x25, 0xdf, 0xd8, 0x5f, 0xd2, 0xe4, 0xce, 0x4e, 0x2f, 0x36, 0x2a, 0xfa, 
  0x2c, 0x46, 0x00, 0xcd, 0xe5, 0x38, 0xfc, 0xfe, 0xe8, 0x38, 0x1f, 0xfa, 
  0xcd, 0xf3, 0x0c, 0x05, 0x2e, 0xf8, 0x0b, 0x25, 0x21, 0xe8, 0xf2, 0x7f, 
  0x2e, 0x12, 0x02, 0xfc, 0x08, 0x4f, 0xcd, 0x0c, 0x2b, 0xfd, 0xf6, 0xec, 
  0xa7, 0xc8, 0xe7, 0x68, 0x0a, 0x29, 0xb9, 0xc8, 0xf6, 0x1d, 0x2f, 0x00, 
  0xf7, 0xfa, 0x16, 0x0b, 0xca, 0xc9, 0x26, 0x1a, 0xe3, 0xbb, 0x23, 0xdd, 
  0xe5, 0x23, 0xd2, 0x3f, 0x11, 0x01, 0xe2, 0xcd, 0xca, 0xf3, 0xe2, 0xd4, 
  0x31, 0x1e, 0xdd, 0xb9, 0x0d, 0xd3, 0x0e, 0x15, 0x25, 0xe8, 0xe1, 0x18, 
  0x1b, 0x27, 0xc8, 0x00, 0xf0, 0x42, 0x09, 0x54, 0x41, 0x02, 0xeb, 0x58, 
  0x55, 0x48, 0x00, 0x18, 0xf8, 0xe9, 0xcc, 0x38, 0xec, 0xd0, 0x28, 0x2d, 
  0xf0, 0x43, 0x46, 0x24, 0x3a, 0x25, 0x13, 0x37, 0xe3, 0xc4, 0x1e, 0x29, 
  0x23, 0x17, 0x44, 0x2d, 0xd4, 0x03, 0x97, 0x00, 0x60, 0x25, 0x35, 0x42, 
  0xca, 0x16, 0x1f, 0xfa, 0x12, 0x8d, 0xdd, 0x04, 0x01, 0x0a, 0x3e, 0x40, 
  0xef, 0x32, 0xe9, 0xc3, 0xea, 0xda, 0xc3, 0x05, 0x28, 0x22, 0xd9, 0x1c, 
  0xb7, 0x2f, 0x4c, 0x2f, 0xab, 0xd9, 0xee, 0x19, 0x19, 0x22, 0xc4, 0x23, 
  0x47, 0x50, 0x42, 0x0e, 0x1a, 0xa9, 0xf8, 0xdf, 0xc0, 0x98, 0xfe, 0xa9, 
  0x40, 0x4b, 0xc9, 0x10, 0x2a, 0xce, 0x48, 0x0e, 0x4e, 0xe2, 0xb7, 0xbe, 
  0x8f, 0xac, 0x66, 0x43, 0x68, 0xd7, 0xf0, 0xee, 0x0b, 0xf4, 0xd7, 0xf8, 
  0xda, 0xdc, 0xd0, 0x1a, 0xb1, 0x33, 0x6e, 0xe4, 0xf3, 0x00, 0xf9, 0xc1, 
  0xb3, 0xe9, 0xd1, 0xc5, 0x12, 0xc7, 0x00, 0x29, 0xea, 0xb0, 0x53, 0x16, 
  0xc8, 0x1a, 0xf8, 0x81, 0x07, 0x3e, 0x5a, 0x30, 0xdc, 0xfe, 0x40, 0x40, 
  0xef, 0x25, 0x3d, 0x4b, 0x03, 0x27, 0x1f, 0xba, 0x41, 0xc7, 0x02, 0x48, 
  0xab, 0xfb, 0x21, 0x04, 0x29, 0x38, 0xd7, 0x18, 0x2e, 0x1b, 0xe7, 0x1d, 
  0x44, 0xdf, 0x13, 0x24, 0xf6, 0xa7, 0xb1, 0x37, 0x26, 0x2b, 0xdf, 0x25, 
  0x10, 0x16, 0xba, 0x31, 0xdb, 0xb2, 0x34, 0xb5, 0x05, 0xc9, 0x07, 0x38, 
  0xce, 0xf0, 0xe3, 0xf1, 0xe5, 0xf3, 0xd8, 0xb9, 0x31, 0xd7, 0xfd, 0xa7, 
  0xdf, 0xe1, 0x26, 0x41, 0xb9, 0xb2, 0x57, 0xab, 0xee, 0xb6, 0xc8, 0x01, 
  0xc1, 0x25, 0x46, 0x22, 0x29, 0xbc, 0x4c, 0xef, 0x3c, 0x0a, 0xfb, 0x3b, 
  0xf8, 0x20, 0x10, 0x97, 0x12, 0xd8, 0xff, 0x29, 0xd6, 0x28, 0xdd, 0xca, 
  0xe6, 0x3c, 0xe1, 0xd9, 0xd3, 0xe5, 0x25, 0xf6, 0xcf, 0x34, 0x04, 0xb5, 
  0x1a, 0xc5, 0x36, 0x30, 0xcf, 0x43, 0x50, 0x22, 0x13, 0x21, 0x11, 0x6a, 
  0xeb, 0xfa, 0x4e, 0xf1, 0x1c, 0x40, 0xc9, 0xd0, 0xdb, 0x16, 0x2a, 0x5d, 
  0x31, 0x00, 0x01, 0xd7, 0xca, 0xa9, 0xf9, 0xcf, 0xfb, 0x0c, 0x02, 0x54, 
  0x3a, 0x0c, 0x10, 0x2f, 0xc1, 0x24, 0xd4, 0x17, 0x4f, 0xda, 0xf9, 0xfd, 
  0x29, 0x9c, 0xda, 0x10, 0x1e, 0x1c, 0xee, 0xeb, 0xf1, 0x45, 0x10, 0x12, 
  0xd9, 0x35, 0x5b, 0x01, 0xe9, 0x03, 0xef, 0xff, 0x49, 0xb2, 0xc3, 0x05, 
  0x29, 0xd9, 0x12, 0xb7, 0x30, 0x33, 0x40, 0x13, 0x42, 0x8e, 0x78, 0x8d, 
  0xc1, 0xa5, 0x40, 0x26, 0x63, 0xe5, 0xba, 0x65, 0xb2, 0xd6, 0xfa, 0xce, 
  0xc5, 0xb5, 0xb8, 0x11, 0x09, 0xb7, 0x1a, 0x4f, 0xe9, 0xdc, 0xed, 0xa3, 
  0x9d, 0xd5, 0xb9, 0xdc, 0x16, 0x19, 0xec, 0xdc, 0xfa, 0x12, 0x3f, 0x0c, 
  0x3c, 0x44, 0x2f, 0x17, 0x20, 0x06, 0x3c, 0xd4, 0x32, 0x0e, 0x2b, 0xf7, 
  0xbd, 0x43, 0x39, 0x0b, 0x0f, 0xce, 0x06, 0xd2, 0xbb, 0x2d, 0xeb, 0xee, 
  0xa6, 0xe1, 0xfd, 0xae, 0x0c, 0x1a, 0xdc, 0x29, 0xeb, 0x1b, 0x00, 0xae, 
  0xc0, 0x19, 0x2e, 0x11, 0xc3, 0x07, 0x6c, 0xf8, 0x0b, 0x1b, 0xe3, 0x95, 
  0xdc, 0xfb, 0x3b, 0x6e, 0xfc, 0x54, 0xef, 0x0e, 0xcc, 0x3e, 0xe4, 0x32, 
  0xe1, 0x32, 0x36, 0xf4, 0x0a, 0x4e, 0xda, 0x7b, 0xfa, 0xe8, 0xbb, 0x06, 
  0xcd, 0x02, 0x69, 0x0f, 0xe1, 0x26, 0xfc, 0xeb, 0xd3, 0x32, 0xdd, 0x9d, 
  0x01, 0xf8, 0xc7, 0x3e, 0xf5, 0xf3, 0xcf, 0x2a, 0xd8, 0x1d, 0x55, 0x00, 
  0xf6, 0x14, 0xcc, 0xfe, 0x26, 0xc2, 0xbd, 0x11, 0xc6, 0xd6, 0xef, 0xdc, 
  0xf7, 0xd2, 0x56, 0x0d, 0x29, 0x33, 0xb8, 0xf9, 0xc1, 0x1f, 0x43, 0xac, 
  0x4b, 0xd3, 0x03, 0x18, 0xe2, 0xef, 0xd5, 0x0d, 0x02, 0x5b, 0xe0, 0xe5, 
  0x04, 0x53, 0x1b, 0xfe, 0xe6, 0xce, 0x67, 0xa9, 0x14, 0x10, 0x2e, 0x2a, 
  0xe0, 0xf2, 0xe1, 0xf6, 0xfd, 0xed, 0xee, 0xb7, 0x25, 0xc9, 0x1d, 0x0d, 
  0x05, 0xa9, 0x44, 0x41, 0x07, 0x42, 0xb7, 0x97, 0xc4, 0xd0, 0x3e, 0x0b, 
  0x3a, 0xee, 0x27, 0x8c, 0x00, 0xe1, 0x64, 0xf7, 0x05, 0x1f, 0x0d, 0xf7, 
  0x14, 0x05, 0xcc, 0x9e, 0x36, 0x9c, 0x55, 0xf7, 0xe3, 0xc2, 0x42, 0x4c, 
  0x57, 0x45, 0x25, 0xb9, 0xfc, 0xae, 0x3a, 0xb8, 0x28, 0x94, 0x4a, 0xac, 
  0xc7, 0xef, 0x3c, 0x49, 0x06, 0x47, 0xef, 0xdb, 0xef, 0xe9, 0x33, 0x1b, 
  0xdd, 0xdb, 0x67, 0xbb, 0xd2, 0x3b, 0xfb, 0xc0, 0xfe, 0x3e, 0xdd, 0xfe, 
  0xcd, 0x02, 0x5e, 0xae, 0x19, 0x06, 0x2b, 0xb9, 0x1b, 0x48, 0x11, 0x12, 
  0x06, 0xec, 0xcb, 0xe9, 0xe3, 0xf9, 0x61, 0x0d, 0xed, 0x3a, 0x15, 0xd3, 
  0xfb, 0xb8, 0x25, 0x5b, 0x71, 0x0a, 0x2f, 0xff, 0xe0, 0xe6, 0x59, 0xe1, 
  0xf3, 0xb7, 0x0f, 0xcf, 0x02, 0x00, 0x25, 0x3d, 0xf2, 0xe1, 0xb8, 0xcb, 
  0x3f, 0x35, 0xf0, 0xca, 0xd3, 0xb5, 0x12, 0x90, 0x3a, 0x18, 0x04, 0xdf, 
  0x1e, 0xe5, 0xda, 0xed, 0xed, 0x1e, 0x02, 0xd6, 0x26, 0xbc, 0x43, 0x1b, 
  0xd1, 0xd7, 0x01, 0x30, 0xfa, 0x09, 0x07, 0xef, 0xb8, 0x2b, 0x2e, 0x09, 
  0xfd, 0xb8, 0xfe, 0xb7, 0x23, 0xee, 0x2a, 0xde, 0x1b, 0xd8, 0xeb, 0x8e, 
  0xbb, 0x1d, 0x39, 0xa7, 0xeb, 0xb9, 0x2b, 0x2d, 0x4e, 0xee, 0x26, 0x1a, 
  0x24, 0xdc, 0xc0, 0xa0, 0x11, 0xfb, 0xfc, 0xda, 0xb8, 0xc8, 0x2e, 0xa5, 
  0xcd, 0x32, 0x28, 0x55, 0x55, 0x30, 0xce, 0xbd, 0xf0, 0xd7, 0xe4, 0x8d, 
  0x10, 0xa0, 0xef, 0xd8, 0x14, 0x26, 0x28, 0x51, 0x44, 0xeb, 0xc2, 0xe0, 
  0xaa, 0x3c, 0xec, 0x81, 0xc4, 0x11, 0x29, 0xb4, 0x18, 0x38, 0x30, 0x1d, 
  0x67, 0xde, 0xbd, 0xfd, 0x16, 0xec, 0x48, 0x9d, 0x2d, 0x19, 0x30, 0x0f, 
  0x06, 0xbe, 0xe3, 0x07, 0x5e, 0x4b, 0x17, 0xf0, 0x06, 0xed, 0x46, 0xeb, 
  0x33, 0xef, 0x2a, 0xc7, 0xc7, 0xfc, 0x3b, 0xfa, 0x31, 0x01, 0x3f, 0x2c, 
  0x21, 0xf3, 0x39, 0xf1, 0x1b, 0xa1, 0x00, 0xe8, 0x2b, 0xc3, 0xca, 0xb9, 
  0x40, 0x26, 0x21, 0xd5, 0xef, 0x07, 0x46, 0xb6, 0xfc, 0x00, 0x08, 0x10, 
  0xf9, 0xce, 0x16, 0x34, 0x11, 0x53, 0x0f, 0xdc, 0xcb, 0xc3, 0xe0, 0xa9, 
  0xba, 0x18, 0xc2, 0x09, 0xdc, 0x0b, 0xd6, 0xc6, 0xf7, 0x09, 0x01, 0x01, 
  0x3d, 0xd1, 0xc9, 0x0b, 0x27, 0x0c, 0x17, 0xd6, 0xf9, 0xe5, 0xd1, 0xc9, 
  0xec, 0xf5, 0x05, 0x1a, 0xcb, 0x34, 0x1e, 0xd0, 0x00, 0xf2, 0xf5, 0x0d, 
  0xdd, 0xd3, 0x0b, 0xec, 0xe3, 0xf0, 0xde, 0xe5, 0xd9, 0x07, 0xfa, 0xfb, 
  0x14, 0xdc, 0x22, 0xe0, 0x2c, 0xca, 0x09, 0x10, 0x37, 0x3e, 0xdd, 0xba, 
  0xf1, 0x3d, 0xe5, 0x00, 0x32, 0xfa, 0xd7, 0xe2, 0xf5, 0xcf, 0x04, 0xce, 
  0xde, 0x1d, 0x16, 0xc8, 0xb9, 0x3b, 0xef, 0x15, 0x0a, 0xe1, 0x31, 0x10, 
  0x36, 0xe6, 0x1d, 0x57, 0x49, 0x07, 0xc9, 0xea, 0x18, 0x16, 0x1e, 0x4b, 
  0x23, 0x11, 0xfb, 0x21, 0x0d, 0x60, 0x4d, 0x4a, 0xe2, 0xdb, 0x21, 0x06, 
  0x2b, 0xae, 0x28, 0xee, 0xaf, 0xe8, 0x0b, 0xf6, 0x3e, 0x35, 0x2d, 0x26, 
  0xee, 0xf2, 0xeb, 0x09, 0x1b, 0xeb, 0x30, 0xd0, 0xf3, 0xef, 0xde, 0x3a, 
  0x2b, 0x41, 0xb7, 0xeb, 0xa0, 0xda, 0xd2, 0xff, 0x35, 0x00, 0x25, 0xd0, 
  0xe5, 0xda, 0x21, 0x1e, 0xf1, 0xef, 0x94, 0xe7, 0xbd, 0xbf, 0xf5, 0x16, 
  0x09, 0x11, 0xe9, 0xbc, 0x21, 0xdb, 0x2d, 0xed, 0x01, 0xec, 0xf1, 0xf3, 
  0x27, 0xdb, 0x06, 0xe5, 0xd9, 0x1a, 0xff, 0x00, 0x29, 0xb2, 0xe4, 0xcd, 
  0xb5, 0xb3, 0xfb, 0x16, 0x1d, 0x2a, 0xfd, 0x81, 0xb7, 0x2b, 0xbc, 0x23, 
  0x26, 0xf8, 0xfe, 0xf1, 0xc8, 0xdb, 0x0d, 0x42, 0x38, 0x3b, 0x2d, 0xb4, 
  0xfd, 0xd4, 0xed, 0xf7, 0xe2, 0xef, 0xea, 0xcd, 0x0e, 0x2c, 0x39, 0x29, 
  0x1d, 0x49, 0x18, 0xeb, 0x1b, 0xed, 0x0a, 0xf5, 0x2f, 0xff, 0xc9, 0xeb, 
  0x16, 0x19, 0x0b, 0x49, 0xec, 0x38, 0x06, 0xce, 0xdd, 0xd5, 0xe6, 0x47, 
  0xb5, 0x2d, 0x1d, 0x1c, 0xec, 0x49, 0xdf, 0x28, 0xe6, 0xe5, 0x32, 0x25, 
  0x1f, 0xdd, 0x34, 0xb0, 0xf5, 0x12, 0xe0, 0x0c, 0xff, 0x14, 0xfa, 0xcf, 
  0xc5, 0xcc, 0xfc, 0x11, 0x36, 0x1c, 0x54, 0x8c, 0x0f, 0xe2, 0x13, 0xf0, 
  0x27, 0xff, 0xd4, 0xc5, 0x02, 0xc4, 0x2f, 0x43, 0x11, 0x15, 0x3b, 0xbd, 
  0x20, 0xcf, 0x15, 0xdd, 0xb8, 0x12, 0xdd, 0x11, 0x17, 0xfa, 0xea, 0xca, 
  0xc0, 0x41, 0xd0, 0xee, 0xe0, 0x13, 0x02, 0x16, 0x11, 0xb1, 0xdf, 0x09, 
  0x13, 0x26, 0x24, 0xad, 0x08, 0x42, 0xe6, 0x44, 0x4e, 0xed, 0x22, 0xe4, 
  0xe6, 0xe6, 0x16, 0x01, 0xfc, 0x11, 0xe0, 0xe6, 0x26, 0xfc, 0xec, 0x45, 
  0x31, 0xfb, 0xee, 0xf6, 0x12, 0xd3, 0xf9, 0x18, 0x11, 0x3a, 0x27, 0xb0, 
  0x14, 0xd3, 0x2c, 0x55, 0xeb, 0x16, 0xc8, 0x04, 0x37, 0x04, 0x38, 0x06, 
  0xd7, 0x1f, 0x20, 0x0a, 0x29, 0xdf, 0xd6, 0xd3, 0xbd, 0x32, 0xea, 0x27, 
  0x28, 0x41, 0x04, 0x0b, 0xe3, 0x2c, 0x31, 0xf9, 0xec, 0xe6, 0xe3, 0xff, 
  0x04, 0x16, 0xfd, 0x1c, 0x02, 0xe5, 0x06, 0x10, 0xe6, 0x14, 0xd6, 0xdb, 
  0x30, 0xda, 0x0c, 0x0e, 0xd1, 0xa3, 0xbd, 0x9d, 0x4c, 0xf6, 0xc6, 0xb2, 
  0xbc, 0x97, 0xff, 0x0c, 0xb3, 0x5f, 0xc6, 0xac, 0x5a, 0x53, 0x17, 0xe8, 
  0x32, 0xff, 0x5c, 0xf7, 0x99, 0x31, 0x38, 0x71, 0xef, 0x69, 0x83, 0xa7, 
  0x92, 0x9e, 0x53, 0x8d, 0xa6, 0xc6, 0x81, 0x8f, 0x26, 0x1f, 0xfe, 0x95, 
  0xac, 0xbc, 0xf7, 0x8b, 0xaa, 0xad, 0x91, 0x32, 0x49, 0xf8, 0xfa, 0x5a, 
  0x0c, 0xf4, 0x1b, 0xcc, 0xd6, 0xfe, 0xb7, 0x9b, 0xea, 0xfa, 0xf2, 0x4d, 
  0xa8, 0xe6, 0xca, 0x98, 0xe6, 0x47, 0x11, 0x79, 0x39, 0xef, 0x02, 0xd2, 
  0xc9, 0x45, 0x9e, 0xb9, 0x62, 0xed, 0xbd, 0x54, 0x13, 0xa8, 0xa5, 0xd8, 
  0xfc, 0xdd, 0xad, 0x5b, 0x28, 0x15, 0xcf, 0xb4, 0xce, 0x89, 0x5a, 0x0f, 
  0xca, 0x44, 0x6b, 0xc3, 0xa1, 0x95, 0xe8, 0x39, 0xcd, 0xef, 0x63, 0x53, 
  0x33, 0x60, 0x26, 0x9e, 0xeb, 0xea, 0x53, 0x1d, 0xb2, 0x08, 0xa6, 0x00, 
  0x0a, 0x46, 0xf8, 0x9e, 0xd7, 0x9b, 0xf6, 0x1d, 0x53, 0x37, 0x17, 0xbe, 
  0x1b, 0xf2, 0xfe, 0xf8, 0xa3, 0xbc, 0x47, 0x1c, 0x12, 0x08, 0xb5, 0x17, 
  0x3f, 0x82, 0xbc, 0x0e, 0x45, 0x6e, 0xa7, 0xee, 0xf8, 0xbf, 0xad, 0xed, 
  0x66, 0xa3, 0x08, 0xb9, 0xe2, 0x09, 0xff, 0xd5, 0xc5, 0xde, 0xd6, 0xaf, 
  0xfc, 0xa2, 0xa6, 0x96, 0x07, 0xd3, 0x0a, 0x27, 0x9d, 0xbc, 0x98, 0xe9, 
  0xc2, 0x00, 0x50, 0xfa, 0xdb, 0xdf, 0xca, 0x4a, 0x0c, 0x42, 0x65, 0xf5, 
  0xa4, 0xa2, 0x59, 0xaa, 0x68, 0x54, 0x28, 0xba, 0x84, 0xf9, 0x9f, 0x5b, 
  0xf8, 0x22, 0xab, 0xd5, 0x4c, 0xb6, 0x0b, 0xc2, 0x0e, 0xc4, 0xaf, 0x67, 
  0x1b, 0xc1, 0xd4, 0xba, 0x96, 0xc7, 0xc0, 0x47, 0x22, 0x3f, 0x6d, 0xd5, 
  0x16, 0xf3, 0x85, 0x38, 0x3a, 0xe8, 0xc6, 0xf0, 0xa4, 0x1d, 0x28, 0x3b, 
  0x09, 0xe0, 0xcd, 0xea, 0x00, 0xb1, 0xa3, 0x48, 0xd8, 0x2f, 0xe5, 0xe0, 
  0xee, 0x88, 0x9c, 0x64, 0xf6, 0xca, 0xa5, 0xa0, 0x94, 0x41, 0xd0, 0x02, 
  0x5e, 0xee, 0xe8, 0xc8, 0x65, 0x09, 0x5a, 0x50, 0xe1, 0x88, 0xd6, 0xfb, 
  0x88, 0xcd, 0x07, 0x36, 0x0f, 0x8c, 0xd9, 0x95, 0x44, 0xce, 0x53, 0x46, 
  0x57, 0x0e, 0x95, 0xae, 0x44, 0xfd, 0x9e, 0x13, 0xc4, 0xd8, 0x46, 0x51, 
  0x19, 0x42, 0x01, 0xe9, 0x3b, 0xa7, 0xdd, 0xe3, 0x0e, 0x1b, 0xe1, 0x94, 
  0x2d, 0x6d, 0xbd, 0xaa, 0xb2, 0x01, 0xec, 0x0d, 0x89, 0x69, 0xef, 0xc4, 
  0x12, 0xdf, 0xf4, 0xf8, 0xd3, 0xcc, 0x09, 0x1c, 0x90, 0x1a, 0x6a, 0xd2, 
  0x39, 0x95, 0x95, 0x49, 0xd7, 0xa1, 0xdf, 0xe4, 0x8d, 0x44, 0x49, 0x03, 
  0x62, 0xa2, 0x94, 0xc4, 0xc9, 0x05, 0xef, 0xbc, 0x9a, 0x37, 0xf4, 0xd5, 
  0xbe, 0x20, 0xac, 0x6b, 0x91, 0xd0, 0x64, 0xf3, 0xbb, 0x13, 0x94, 0x75, 
  0xda, 0x5e, 0x5e, 0x5b, 0xf6, 0x0d, 0xb2, 0x5c, 0x52, 0xc6, 0x5e, 0xba, 
  0x26, 0x19, 0xe4, 0xf5, 0x04, 0xa6, 0x6f, 0xdf, 0x0c, 0x00, 0x21, 0x02, 
  0x12, 0x48, 0x23, 0x3e, 0x39, 0x32, 0xc8, 0xfa, 0xd9, 0xe5, 0xd5, 0xce, 
  0xf5, 0x1b, 0x22, 0xb8, 0x07, 0x39, 0x16, 0x04, 0xc9, 0xff, 0x3a, 0xbd, 
  0xcc, 0x35, 0x30, 0xcb, 0x0e, 0x1e, 0x3e, 0xb8, 0x33, 0xe3, 0x1c, 0xe9, 
  0x41, 0xf8, 0xe0, 0xb9, 0x0a, 0xd5, 0xdd, 0xdd, 0xc1, 0x28, 0x25, 0x24, 
  0x32, 0xb5, 0x39, 0xb2, 0xd5, 0xdf, 0x2a, 0x47, 0xca, 0xed, 0x27, 0xc9, 
  0xf5, 0xa6, 0x5e, 0xf6, 0x25, 0x9e, 0x32, 0xf5, 0x2a, 0xe6, 0x00, 0xdd, 
  0xf8, 0xfe, 0xce, 0x05, 0x08, 0xd9, 0x31, 0xa3, 0xfa, 0x03, 0x14, 0xce, 
  0x31, 0x3d, 0xf6, 0x9b, 0xf3, 0x33, 0xfa, 0x07, 0x19, 0xef, 0x1c, 0xa0, 
  0x37, 0xe5, 0x5e, 0x0a, 0x40, 0x48, 0xdc, 0xbe, 0x16, 0xed, 0xce, 0xe9, 
  0x00, 0xab, 0xf6, 0xf6, 0xc7, 0xd6, 0x13, 0x44, 0xe9, 0x26, 0xc0, 0xe9, 
  0xaa, 0xf4, 0x48, 0xb8, 0x2a, 0xfb, 0x20, 0x0a, 0xe3, 0xe8, 0x6a, 0xe4, 
  0x1c, 0x47, 0xda, 0x9c, 0x9d, 0x14, 0xb3, 0x16, 0xef, 0x8d, 0xf3, 0xa1, 
  0xe2, 0x39, 0x62, 0x02, 0xf7, 0xef, 0xd9, 0xff, 0x25, 0xa8, 0x40, 0xe0, 
  0xf0, 0xbc, 0x4a, 0x04, 0x48, 0xd0, 0xe3, 0xf5, 0x3b, 0x0d, 0xc1, 0x37, 
  0x08, 0xfb, 0x34, 0x45, 0xbe, 0xc1, 0xe3, 0x43, 0x08, 0x70, 0xeb, 0xde, 
  0xfa, 0x1e, 0xe3, 0x9a, 0x4e, 0xea, 0x7f, 0xd1, 0x35, 0x06, 0x29, 0x1a, 
  0x1c, 0x0b, 0xbb, 0x21, 0x0c, 0xf7, 0x18, 0xd7, 0xeb, 0xdc, 0x42, 0xc1, 
  0x46, 0xcc, 0x17, 0xdc, 0x13, 0x14, 0x31, 0x2e, 0x21, 0x27, 0x25, 0xd6, 
  0xc0, 0xd2, 0xe5, 0xeb, 0x2e, 0x04, 0x50, 0xe7, 0xbb, 0xe0, 0x19, 0xfa, 
  0x3a, 0xeb, 0x23, 0x08, 0xf3, 0x17, 0x55, 0xa8, 0xd7, 0x90, 0x3d, 0xa9, 
  0xbb, 0x21, 0x26, 0x27, 0x75, 0xf3, 0xbd, 0xc3, 0xe4, 0x1b, 0x53, 0x42, 
  0x4c, 0xec, 0x49, 0x0c, 0x11, 0xe8, 0x68, 0xdb, 0x02, 0x48, 0x0f, 0xc2, 
  0x20, 0xfd, 0x39, 0x22, 0x06, 0x9a, 0x21, 0xf7, 0x15, 0x3a, 0xdd, 0x3e, 
  0x3c, 0xc0, 0x1c, 0x02, 0xf7, 0x26, 0x30, 0xe0, 0xa3, 0xd7, 0xca, 0x17, 
  0xb1, 0x1a, 0x16, 0xd5, 0x28, 0xef, 0x2a, 0xee, 0xf5, 0x11, 0xc9, 0xfb, 
  0xd6, 0xfe, 0xdc, 0xb5, 0x16, 0xd7, 0x24, 0x3b, 0xe0, 0x0c, 0x0b, 0xa1, 
  0xf3, 0x0c, 0xf3, 0x25, 0xaf, 0x10, 0x16, 0x32, 0x44, 0x37, 0xc5, 0xe4, 
  0x2d, 0x15, 0x30, 0x25, 0x16, 0x17, 0xe1, 0xf1, 0xc4, 0xbd, 0x08, 0xda, 
  0x3b, 0xf0, 0xcc, 0xe8, 0x05, 0xe6, 0x0d, 0xec, 0xd9, 0x32, 0x0d, 0xb0, 
  0x2d, 0xba, 0xde, 0xb7, 0xc7, 0x31, 0x0a, 0x36, 0x13, 0x2d, 0xf1, 0xf3, 
  0x09, 0x39, 0xc8, 0x11, 0x08, 0x0e, 0x11, 0x01, 0xea, 0xfc, 0x29, 0xd3, 
  0x2a, 0xd8, 0x34, 0x23, 0x29, 0x3e, 0x5c, 0xcf, 0x34, 0xe6, 0x37, 0x05, 
  0xd7, 0xf6, 0xe2, 0xe0, 0x49, 0x35, 0x28, 0x34, 0x9f, 0xe3, 0xab, 0x40, 
  0xe5, 0x53, 0xf3, 0xf4, 0xe5, 0xc6, 0xd8, 0x14, 0xd1, 0x3b, 0x29, 0x3b, 
  0xfa, 0x40, 0xed, 0x04, 0x01, 0x13, 0x6d, 0x2f, 0x26, 0x26, 0x01, 0x31, 
  0x24, 0x1d, 0x29, 0xd3, 0x16, 0x08, 0x01, 0xcd, 0x2a, 0x01, 0x2f, 0xf6, 
  0x1c, 0xf4, 0x22, 0xf0, 0x3a, 0xd0, 0x16, 0xf4, 0xc5, 0x1b, 0xe1, 0x1c, 
  0xe9, 0x2c, 0x2b, 0x08, 0x39, 0x39, 0x19, 0x2d, 0x57, 0x2c, 0xc3, 0x37, 
  0x24, 0xe5, 0xfc, 0x02, 0x41, 0x24, 0x46, 0xe2, 0xe1, 0x23, 0x36, 0x22, 
  0x35, 0x11, 0x11, 0x05, 0x18, 0xf4, 0xec, 0x2b, 0x0e, 0xea, 0xed, 0xc4, 
  0xc2, 0xaa, 0x02, 0xde, 0x1d, 0x2a, 0x05, 0xdf, 0xa9, 0xec, 0xf9, 0x12, 
  0xc8, 0x0c, 0xe6, 0x9f, 0xd1, 0x0a, 0x52, 0xfd, 0x0a, 0xd8, 0x1f, 0x98, 
  0xbc, 0x39, 0x21, 0xb6, 0x1a, 0x29, 0x3c, 0xa7, 0x1a, 0x12, 0xd7, 0xce, 
  0x17, 0xec, 0xca, 0xf1, 0x34, 0xe1, 0x12, 0xe5, 0xcf, 0x99, 0x42, 0xf5, 
  0x1d, 0x2e, 0x1d, 0xe0, 0xfc, 0xc9, 0x1c, 0x81, 0xd8, 0x31, 0x01, 0xc1, 
  0x31, 0x06, 0xff, 0xcc, 0xf9, 0xc8, 0xd3, 0xcb, 0x4f, 0x45, 0x40, 0x14, 
  0x07, 0x28, 0x6b, 0xdb, 0x1c, 0xeb, 0xdd, 0xc7, 0xdd, 0x0b, 0x00, 0x2a, 
  0xef, 0xc9, 0x14, 0x23, 0xd2, 0xf1, 0x1e, 0xc5, 0x0d, 0x05, 0xf0, 0xc8, 
  0xc5, 0xf9, 0x25, 0xfd, 0x3b, 0x04, 0xd8, 0xbf, 0x10, 0xe4, 0x47, 0xc6, 
  0x2d, 0x47, 0x08, 0xc7, 0x26, 0x26, 0xcf, 0x33, 0x23, 0xfc, 0x1d, 0xc8, 
  0x2f, 0x2f, 0x20, 0xaf, 0x42, 0x30, 0x18, 0xe2, 0xd1, 0xc8, 0xe9, 0x1f, 
  0x41, 0xfd, 0xcd, 0xe9, 0xd6, 0xf4, 0x0d, 0xf3, 0x1e, 0x13, 0x43, 0x11, 
  0xd6, 0x02, 0x25, 0x14, 0x1d, 0x34, 0x3d, 0xdd, 0x24, 0x5d, 0x1f, 0x9c, 
  0x3e, 0xf4, 0x43, 0xef, 0x17, 0x1d, 0x5c, 0x0e, 0x02, 0x2a, 0x34, 0xdb, 
  0xdd, 0x1d, 0x0c, 0xb4, 0xc8, 0xe7, 0xe2, 0xf0, 0xcc, 0xd5, 0x3b, 0x02, 
  0x53, 0xf7, 0xde, 0x8b, 0x08, 0x37, 0xc5, 0xbe, 0xe6, 0x41, 0xf6, 0xbd, 
  0xd7, 0x00, 0x50, 0xe2, 0x43, 0x0d, 0xf8, 0xd3, 0xd9, 0x25, 0x14, 0xce, 
  0x31, 0xd2, 0x19, 0x0d, 0x17, 0x0e, 0x0a, 0x5a, 0x2c, 0x3e, 0xcd, 0xda, 
  0x43, 0x2c, 0xed, 0x1e, 0xf4, 0xc1, 0x61, 0xea, 0xe1, 0xc2, 0x1a, 0x37, 
  0xe4, 0xcc, 0xdf, 0xa9, 0x28, 0x59, 0x07, 0xd9, 0xda, 0x0a, 0x23, 0x33, 
  0xeb, 0xc5, 0xd3, 0xd4, 0x55, 0x2d, 0xdc, 0x27, 0xce, 0xd4, 0x3a, 0xe8, 
  0x2c, 0xb3, 0x0c, 0x0a, 0xc3, 0xce, 0x2e, 0x10, 0x5b, 0xc7, 0x2f, 0xe9, 
  0xb8, 0xf1, 0xd8, 0xcd, 0xbd, 0xf9, 0x42, 0xc8, 0xe8, 0xfa, 0x08, 0x20, 
  0xcd, 0xcc, 0x22, 0x2d, 0xcf, 0x06, 0xfb, 0x9e, 0xeb, 0xd7, 0x10, 0xd9, 
  0x1f, 0x2c, 0xd6, 0xd2, 0xfe, 0xb9, 0x22, 0xbb, 0x33, 0x2a, 0xef, 0x9c, 
  0xc9, 0xe9, 0x1e, 0xcd, 0xeb, 0x0d, 0xc2, 0x26, 0x27, 0x0f, 0x0d, 0xe1, 
  0x01, 0x32, 0xec, 0xe6, 0x39, 0xd0, 0xfe, 0xcd, 0x2b, 0x0b, 0x19, 0xf2, 
  0xd1, 0xf9, 0x29, 0x15, 0xc7, 0xef, 0xf9, 0xed, 0xd5, 0x18, 0xeb, 0x13, 
  0x30, 0xf2, 0x3d, 0xeb, 0xe6, 0x2a, 0xda, 0x1f, 0xe0, 0xef, 0xca, 0xf2, 
  0xeb, 0xf1, 0xeb, 0xea, 0xe7, 0x00, 0xd3, 0x05, 0x1e, 0x0a, 0xea, 0x24, 
  0x1d, 0xca, 0x02, 0xda, 0xe4, 0x05, 0x01, 0x1c, 0x08, 0x49, 0xbf, 0x10, 
  0x04, 0xf6, 0xf6, 0x35, 0x43, 0xce, 0xdf, 0x17, 0x0c, 0x02, 0xbc, 0x14, 
  0x19, 0x3d, 0xab, 0xf5, 0xe8, 0xd9, 0xe3, 0x51, 0x0a, 0xc9, 0x10, 0xc9, 
  0x18, 0xe8, 0xae, 0xeb, 0x05, 0xe4, 0x81, 0xbd, 0xde, 0xc6, 0xdd, 0x50, 
  0xef, 0x08, 0x22, 0xa9, 0x2d, 0xd8, 0xd7, 0xed, 0xf7, 0x26, 0xae, 0xae, 
  0xe2, 0xf0, 0x19, 0xf3, 0x09, 0xce, 0x1e, 0xed, 0x12, 0xc9, 0x33, 0x22, 
  0x1b, 0xff, 0xfc, 0x16, 0x0b, 0x15, 0x1f, 0x23, 0xe9, 0x17, 0xef, 0xe7, 
  0xf9, 0x18, 0xea, 0xf6, 0x34, 0x08, 0xdc, 0x08, 0xf0, 0x37, 0x2f, 0xf1, 
  0xca, 0xee, 0x17, 0x36, 0xe9, 0x1a, 0xc7, 0x3a, 0xf3, 0xfd, 0xf4, 0x19, 
  0x1d, 0x1e, 0x0a, 0x27, 0x1f, 0xe6, 0xdb, 0x24, 0xe0, 0x07, 0x0e, 0x20, 
  0x2b, 0x44, 0x11, 0xf7, 0x10, 0x12, 0xe1, 0x25, 0x34, 0xf0, 0xc3, 0x1a, 
  0xbc, 0x10, 0xc8, 0x51, 0x28, 0x40, 0xc9, 0xfa, 0xca, 0xef, 0xdf, 0x24, 
  0x41, 0x08, 0xd3, 0xf4, 0x0d, 0x04, 0x2d, 0x0d, 0x18, 0xf8, 0xeb, 0xa2, 
  0xe6, 0xf0, 0x15, 0x69, 0xfb, 0x21, 0xff, 0x2a, 0x00, 0xec, 0x14, 0xe5, 
  0xc5, 0x10, 0xfc, 0xf0, 0xf7, 0xf4, 0xec, 0xe2, 0xf3, 0x07, 0xf4, 0x1f, 
  0x22, 0xf3, 0x15, 0xfa, 0x2d, 0xe5, 0xdd, 0xcf, 0xc9, 0xe5, 0x1c, 0x1c, 
  0x1a, 0x36, 0x1e, 0x24, 0x1b, 0xf8, 0xfa, 0x37, 0xc4, 0xce, 0x1d, 0x1d, 
  0x19, 0xdf, 0x2e, 0x51, 0x1f, 0x02, 0xf9, 0x5d, 0x13, 0x36, 0xd3, 0xde, 
  0xe8, 0xe7, 0x18, 0x31, 0x2e, 0x16, 0x21, 0xcd, 0x06, 0xc7, 0xfb, 0x33, 
  0xf0, 0xe8, 0x02, 0xd7, 0xf3, 0x22, 0xf8, 0x08, 0x13, 0xf0, 0xf9, 0x28, 
  0xff, 0xef, 0x00, 0x48, 0xda, 0x39, 0x06, 0x3d, 0x01, 0xef, 0xf7, 0xfd, 
  0xe0, 0x2c, 0x23, 0x03, 0x16, 0xe1, 0x34, 0x40, 0x31, 0x20, 0xe3, 0xff, 
  0x17, 0x18, 0x04, 0xde, 0xcd, 0x03, 0x33, 0xf3, 0x18, 0xf1, 0x32, 0x04, 
  0xe9, 0x38, 0xf1, 0xf8, 0x14, 0xfa, 0xed, 0x13, 0x02, 0x2f, 0xd2, 0x09, 
  0x2f, 0x13, 0xe2, 0x16, 0x25, 0x22, 0x16, 0x37, 0x26, 0xe8, 0xfb, 0xf3, 
  0xd1, 0xf6, 0x1d, 0xe1, 0x2d, 0x12, 0xe6, 0xee, 0x40, 0x07, 0xc6, 0x24, 
  0xc4, 0x11, 0xd4, 0xeb, 0x1e, 0xe4, 0x08, 0x38, 0x21, 0x17, 0x15, 0xed, 
  0xf0, 0xdc, 0x05, 0x20, 0xd5, 0xf3, 0x03, 0xe2, 0x20, 0xdb, 0x11, 0xc4, 
  0xf4, 0x41, 0x08, 0xe8, 0x17, 0x12, 0xe2, 0xd9, 0xce, 0xeb, 0xe1, 0xfb, 
  0x04, 0x10, 0x0b, 0x24, 0xec, 0xd8, 0x02, 0x32, 0x0c, 0xe5, 0x00, 0xbe, 
  0x14, 0xdf, 0xff, 0x66, 0x12, 0x2c, 0xba, 0xcf, 0xf7, 0xe3, 0xae, 0xd8, 
  0x15, 0x0e, 0xa8, 0xd9, 0x55, 0x5f, 0x53, 0xd1, 0xc4, 0x22, 0x12, 0x24, 
  0xcf, 0x10, 0xdd, 0xe9, 0xc9, 0x3f, 0x0a, 0x09, 0xf3, 0xfc, 0xd7, 0x41, 
  0xc5, 0xa6, 0x48, 0x49, 0x52, 0x10, 0xb3, 0x2c, 0xba, 0x15, 0x08, 0xdc, 
  0x12, 0xd9, 0xd4, 0x2f, 0xb9, 0x2b, 0xca, 0xe0, 0x28, 0x10, 0x48, 0xd0, 
  0xe0, 0xa3, 0xd8, 0x0c, 0xc2, 0x2d, 0x02, 0xd3, 0x00, 0xd8, 0xf5, 0x40, 
  0xd6, 0x25, 0xf8, 0xf6, 0x30, 0xac, 0xc3, 0x44, 0x3e, 0xd3, 0xb0, 0xbc, 
  0xd4, 0xbb, 0x41, 0xd5, 0x17, 0xe3, 0x2e, 0xfc, 0x55, 0x09, 0x04, 0xf7, 
  0xc0, 0xe9, 0x90, 0xf3, 0x16, 0x0b, 0xb7, 0x49, 0xea, 0xcc, 0xd1, 0x61, 
  0xd7, 0x2b, 0x47, 0x31, 0x03, 0xca, 0x07, 0xb6, 0xff, 0xc7, 0xf3, 0x18, 
  0x09, 0x0d, 0xc0, 0x31, 0x55, 0xd2, 0x4e, 0xeb, 0x45, 0xbe, 0x4f, 0x5d, 
  0x01, 0x3b, 0xe1, 0x06, 0x1d, 0x1c, 0xb3, 0x26, 0xef, 0x1c, 0x25, 0x31, 
  0x1a, 0x4b, 0x41, 0x1d, 0x25, 0xde, 0x0b, 0x3f, 0x2f, 0x05, 0xc6, 0x7a, 
  0x11, 0x07, 0x02, 0xe5, 0x3c, 0x48, 0x56, 0x25, 0xbd, 0x18, 0xea, 0x4f, 
  0xc9, 0xf9, 0x06, 0x29, 0xcb, 0xe9, 0xba, 0x2f, 0x01, 0x48, 0x09, 0x06, 
  0xee, 0xcb, 0x1d, 0x05, 0x2e, 0xf3, 0x3f, 0xde, 0x26, 0xf1, 0xc9, 0x2d, 
  0x18, 0x3d, 0xd7, 0xf0, 0xf6, 0xcb, 0xfc, 0x5c, 0x2c, 0x25, 0x3a, 0x0e, 
  0xf0, 0xc7, 0xbd, 0xd0, 0xa0, 0x2f, 0xe8, 0x99, 0xca, 0xee, 0xd4, 0xc7, 
  0xdf, 0xd9, 0xff, 0xd7, 0x44, 0x23, 0xfb, 0xf9, 0x0a, 0x88, 0xe4, 0xd9, 
  0x26, 0x40, 0xf7, 0x96, 0xdc, 0x0e, 0xc6, 0xe9, 0x36, 0x1c, 0x1e, 0xa6, 
  0xcb, 0xaa, 0xe2, 0x2f, 0xd8, 0x30, 0xf2, 0x3c, 0x0c, 0xe7, 0xfc, 0x33, 
  0x20, 0x0b, 0xec, 0xd2, 0x2f, 0x14, 0x72, 0xdf, 0xf1, 0x45, 0x46, 0xe1, 
  0xba, 0xad, 0xd6, 0x1c, 0xd2, 0x29, 0xd8, 0xdb, 0xc3, 0xf0, 0x13, 0x0a, 
  0xc9, 0x4b, 0xd5, 0xf1, 0xc1, 0x3c, 0x12, 0x17, 0xfd, 0x26, 0xbb, 0x7f, 
  0xc9, 0x2c, 0xc8, 0xf9, 0xf5, 0xe1, 0xe1, 0x2a, 0x5e, 0xc7, 0xff, 0x6d, 
  0xe8, 0x42, 0xd1, 0x33, 0xf3, 0x1b, 0x19, 0x4b, 0xf1, 0x14, 0xdd, 0xc1, 
  0x44, 0xee, 0xfd, 0x24, 0x1c, 0xf2, 0xb0, 0x0e, 0x16, 0xe4, 0x25, 0xf2, 
  0xf9, 0x2c, 0x30, 0x17, 0x01, 0xdb, 0x22, 0xce, 0x17, 0xa7, 0xf1, 0xfe, 
  0x18, 0xe7, 0xf7, 0xcd, 0xf3, 0xe0, 0x2d, 0x69, 0xfd, 0xca, 0x07, 0x67, 
  0x34, 0x26, 0xf2, 0xd3, 0xd0, 0x2d, 0xc6, 0x09, 0x25, 0xfc, 0x2c, 0xfd, 
  0x0f, 0xdd, 0x07, 0x6d, 0x27, 0xcf, 0xab, 0x51, 0xe6, 0x1e, 0xf2, 0x3e, 
  0xf4, 0x08, 0x38, 0x04, 0x00, 0xbd, 0xae, 0x25, 0x03, 0x26, 0x44, 0xee, 
  0xdd, 0x02, 0x37, 0xe2, 0xf0, 0x1e, 0x00, 0x2c, 0x15, 0xbc, 0x02, 0x43, 
  0xea, 0x1f, 0x39, 0x43, 0x27, 0x54, 0x49, 0x46, 0xd2, 0x3c, 0x11, 0xf6, 
  0x44, 0xf8, 0x2c, 0x5f, 0xe0, 0xe8, 0xb7, 0x15, 0x51, 0x03, 0x04, 0x46, 
  0xea, 0x32, 0x1e, 0x33, 0x1b, 0xd1, 0x0d, 0x25, 0xd2, 0x31, 0xfd, 0xe6, 
  0x10, 0xfa, 0xdc, 0xcb, 0x26, 0x1e, 0xf2, 0x52, 0x0a, 0xeb, 0xdf, 0xb1, 
  0xdd, 0xf8, 0x23, 0x32, 0x0c, 0x0a, 0xe8, 0xe9, 0x0a, 0x45, 0xd6, 0xe7, 
  0x14, 0xf7, 0xb9, 0xfc, 0x36, 0xef, 0x0d, 0x04, 0x1c, 0x02, 0x03, 0x47, 
  0xca, 0x34, 0x34, 0x48, 0x28, 0x45, 0x25, 0xb8, 0x17, 0x43, 0xb1, 0xf5, 
  0xfc, 0x33, 0xa4, 0xe3, 0xfd, 0xdc, 0x2b, 0x5e, 0x48, 0x4b, 0xd3, 0x1d, 
  0x0e, 0x49, 0xd0, 0x20, 0x4d, 0x00, 0x08, 0xcd, 0xfd, 0x12, 0xf7, 0x78, 
  0x0b, 0x4b, 0x33, 0xd6, 0x15, 0xea, 0x0f, 0xfb, 0x0e, 0x54, 0xc0, 0x2a, 
  0xba, 0x1e, 0x0f, 0x6a, 0x1e, 0x1c, 0x0a, 0x69, 0xe4, 0x0d, 0x09, 0x5a, 
  0x3f, 0xd0, 0xca, 0xc9, 0xe8, 0xe3, 0xfc, 0x52, 0x05, 0x0a, 0x07, 0x1a, 
  0xea, 0x7f, 0xe4, 0x1d, 0x57, 0x3b, 0x1b, 0xdc, 0xd2, 0xd8, 0xd2, 0x64, 
  0x3f, 0x35, 0xda, 0x48, 0xf7, 0x00, 0xe7, 0x24, 0xda, 0x36, 0xef, 0xe9, 
  0xa7, 0xfd, 0x3b, 0xfb, 0xe5, 0xd3, 0xdb, 0x29, 0x35, 0xfa, 0xe7, 0x27, 
  0x15, 0xd8, 0x2a, 0xe3, 0xa7, 0xd3, 0xe6, 0x07, 0x06, 0x2a, 0xcf, 0x4e, 
  0xf6, 0xe0, 0x0d, 0x07, 0x08, 0x3b, 0x20, 0xc6, 0xd5, 0xd4, 0x38, 0x60, 
  0xe5, 0x6f, 0xcd, 0xfd, 0x57, 0xf9, 0x28, 0xe2, 0x3e, 0x4a, 0x05, 0xe3, 
  0xfc, 0xfb, 0x38, 0x6e, 0x23, 0x56, 0xfc, 0x59, 0xf1, 0x2a, 0x00, 0x62, 
  0x33, 0x62, 0xea, 0x33, 0xeb, 0xfb, 0xc2, 0x6f, 0x04, 0x43, 0x26, 0x6c, 
  0x38, 0x5b, 0x07, 0x54, 0x12, 0xd4, 0x26, 0x3b, 0xba, 0x18, 0x46, 0x1d, 
  0xf6, 0x2b, 0xb8, 0xe9, 0x0e, 0xfe, 0x30, 0xe2, 0x29, 0x5a, 0xc7, 0xe7, 
  0xab, 0xca, 0x23, 0x74, 0x3b, 0x49, 0xdc, 0xfd, 0x46, 0xec, 0xc9, 0x43, 
  0x39, 0xdb, 0xdc, 0x3c, 0xf6, 0xd5, 0xd6, 0x14, 0x34, 0x60, 0xea, 0x3f, 
  0x39, 0xe5, 0xf4, 0xf1, 0x3c, 0x0b, 0xb5, 0x43, 0xfe, 0xd2, 0xde, 0x24, 
  0x0e, 0xfd, 0x26, 0x69, 0x3d, 0x22, 0xc5, 0x6b, 0x38, 0xfe, 0xc4, 0xc7, 
  0xeb, 0xf8, 0x16, 0xff, 0xd8, 0xe4, 0xa4, 0xf7, 0x2e, 0x60, 0xdf, 0xe5, 
  0xd8, 0xe4, 0x1c, 0xf3, 0xfd, 0xec, 0x43, 0xdb, 0x2a, 0x3b, 0xe4, 0x22, 
  0xe7, 0x69, 0x03, 0x11, 0x0d, 0x3e, 0xdd, 0x37, 0x2f, 0x52, 0x22, 0x72, 
  0x46, 0x2f, 0x12, 0xe1, 0x0b, 0x3d, 0xe2, 0x38, 0x11, 0x32, 0x12, 0xf3, 
  0xbe, 0x49, 0x00, 0x1a, 0x1d, 0xe5, 0xd1, 0x25, 0xf2, 0xdd, 0xcf, 0xf7, 
  0xfd, 0x62, 0x53, 0x51, 0xfe, 0x12, 0x08, 0x17, 0x2e, 0x36, 0xf3, 0x5e, 
  0x54, 0x0c, 0x39, 0xf6, 0x51, 0x27, 0x63, 0x17, 0xfe, 0xd1, 0x3b, 0x36, 
  0x24, 0x03, 0x22, 0xcf, 0x01, 0x10, 0x02, 0xe1, 0xee, 0x24, 0x05, 0x09, 
  0x04, 0x18, 0xec, 0x2f, 0xa4, 0x3c, 0x34, 0xd8, 0x03, 0x3d, 0xfd, 0x2b, 
  0x19, 0x22, 0xf7, 0x27, 0xe9, 0x09, 0x08, 0xda, 0xef, 0xd7, 0xda, 0x28, 
  0xf4, 0x1c, 0x1f, 0x35, 0x2e, 0x26, 0xd6, 0xf8, 0xfd, 0xbf, 0xfc, 0x2d, 
  0x17, 0xdd, 0x50, 0xf1, 0xd8, 0x53, 0x09, 0x0f, 0x2a, 0xd7, 0xae, 0x30, 
  0xc8, 0x23, 0x1d, 0x35, 0xca, 0x42, 0xdf, 0xcb, 0x1f, 0x3a, 0x54, 0x29, 
  0xc9, 0xcf, 0xb7, 0xc3, 0xf5, 0x09, 0x2f, 0xd6, 0x29, 0x1b, 0xc1, 0x25, 
  0x3e, 0xf3, 0xcb, 0xfe, 0x38, 0xe2, 0x0e, 0x4e, 0xf2, 0xf1, 0x13, 0x0b, 
  0xe2, 0xd2, 0xdb, 0x5a, 0x15, 0x4d, 0xcd, 0x2d, 0x35, 0x37, 0xf0, 0xe8, 
  0xf1, 0xef, 0x14, 0xfb, 0x18, 0xed, 0xd5, 0x12, 0xdb, 0x49, 0x35, 0x4f, 
  0x2e, 0x4a, 0xe3, 0xdf, 0xab, 0xcb, 0xc6, 0x2b, 0x4d, 0xf3, 0x45, 0x81, 
  0xde, 0xfb, 0x24, 0xf4, 0x14, 0xe9, 0xdb, 0xd4, 0xfa, 0xe6, 0xd2, 0x61, 
  0x1b, 0xfe, 0x27, 0x29, 0x12, 0xe7, 0xec, 0x47, 0x17, 0xe0, 0xf3, 0xf5, 
  0xe7, 0xc8, 0xce, 0x49, 0xfb, 0x5a, 0xe2, 0x2c, 0xf8, 0x30, 0xda, 0xc2, 
  0x09, 0xea, 0x35, 0x39, 0x18, 0xda, 0x3b, 0x29, 0xac, 0xe5, 0xcd, 0x00, 
  0xce, 0x1a, 0xe6, 0x3c, 0x32, 0x1c, 0x27, 0x27, 0x04, 0xfc, 0x31, 0x68, 
  0x2e, 0x28, 0xed, 0x56, 0xc4, 0x2e, 0x22, 0x0f, 0x38, 0x29, 0x1d, 0xc2, 
  0xb1, 0xe4, 0x31, 0x31, 0x28, 0x25, 0xcb, 0xf5, 0xeb, 0x18, 0x33, 0x11, 
  0xf9, 0xe4, 0xe2, 0xf7, 0xa9, 0xde, 0xbe, 0x7b, 0x4d, 0x28, 0xcf, 0x3f, 
  0x33, 0xef, 0xd3, 0x41, 0xc2, 0x3b, 0x09, 0xa4, 0x24, 0xb6, 0xca, 0xe6, 
  0xf1, 0x3f, 0x22, 0xf8, 0x4b, 0x0d, 0x49, 0xdd, 0x3e, 0xd7, 0x1f, 0x2a, 
  0xe5, 0x17, 0xfb, 0x67, 0x11, 0xf9, 0x10, 0x57, 0xca, 0xfd, 0x3f, 0xe0, 
  0x4c, 0xf2, 0x1c, 0xdd, 0xc2, 0xe4, 0x14, 0x44, 0x3d, 0x04, 0x21, 0x11, 
  0xe2, 0x0e, 0x0e, 0x02, 0x4c, 0xf8, 0xcc, 0xbd, 0xec, 0x0b, 0x0b, 0xfc, 
  0x09, 0x08, 0xea, 0x0c, 0x22, 0x3b, 0x21, 0xd2, 0x41, 0xbf, 0x23, 0x13, 
  0x1a, 0xbf, 0x42, 0x7b, 0x12, 0x2b, 0xaf, 0xd3, 0xea, 0x40, 0xe9, 0x4a, 
  0xda, 0x1f, 0xc7, 0xd6, 0xa7, 0xe6, 0x2f, 0x17, 0xc3, 0x4a, 0xfa, 0x04, 
  0xee, 0x31, 0xf8, 0x4b, 0xcf, 0xfa, 0xb9, 0xcf, 0xc8, 0x1b, 0x14, 0x4b, 
  0xf2, 0x4d, 0x03, 0x32, 0x32, 0x1b, 0x40, 0x0d, 0xe0, 0x4a, 0x1c, 0xe6, 
  0xdc, 0xc9, 0x3c, 0x50, 0x48, 0xf5, 0xb9, 0x1b, 0x40, 0x3c, 0x52, 0xe0, 
  0x44, 0xd7, 0xc8, 0xd1, 0x30, 0xec, 0xfc, 0x1a, 0xe8, 0x0d, 0xff, 0x4b, 
  0xbc, 0x20, 0x19, 0x07, 0x0f, 0x09, 0x4d, 0x06, 0xf7, 0xcd, 0xee, 0x43, 
  0xe9, 0x2b, 0x9e, 0x67, 0x27, 0xe1, 0xbb, 0xdb, 0xfb, 0x57, 0x28, 0xdb, 
  0x06, 0x28, 0x12, 0xaf, 0xe9, 0x17, 0xd4, 0xe1, 0x03, 0x63, 0x16, 0xab, 
  0x38, 0xcd, 0xb7, 0x45, 0x53, 0xf6, 0xa9, 0xce, 0x39, 0xec, 0x94, 0x36, 
  0x8e, 0xc9, 0x95, 0xb8, 0x28, 0xaa, 0xd6, 0x1f, 0xa3, 0xea, 0xe0, 0x2a, 
  0xd5, 0xa0, 0x07, 0xec, 0x22, 0x04, 0x2e, 0xfd, 0xd9, 0xcb, 0x0c, 0xa5, 
  0x9f, 0xfa, 0x0a, 0x24, 0xec, 0x3b, 0x57, 0x44, 0xfd, 0x41, 0xe6, 0x49, 
  0xf3, 0x5f, 0xe5, 0x98, 0x8c, 0x25, 0xfd, 0x9a, 0xaf, 0x54, 0xaa, 0xa8, 
  0x48, 0x2e, 0x28, 0xb6, 0x33, 0xee, 0xd8, 0x0d, 0xbd, 0x47, 0xcc, 0x06, 
  0x4a, 0x03, 0x96, 0x94, 0x0d, 0xf5, 0xca, 0xdb, 0xa0, 0xc7, 0xb9, 0x57, 
  0x08, 0x10, 0xc8, 0xbb, 0xb2, 0x14, 0x1c, 0xa6, 0xed, 0xf6, 0x04, 0xd7, 
  0x0d, 0x23, 0x35, 0x02, 0xfc, 0x1c, 0xb6, 0x56, 0xe5, 0x35, 0xcd, 0x11, 
  0x5c, 0xe3, 0xc4, 0x4f, 0x4b, 0x55, 0xc9, 0xc9, 0xad, 0x39, 0xc3, 0xff, 
  0xc6, 0x4e, 0xf9, 0xb0, 0x16, 0xd0, 0x9e, 0xa8, 0x34, 0x44, 0xea, 0x28, 
  0x4f, 0x0b, 0x57, 0xc7, 0x95, 0x1d, 0x00, 0xc6, 0x41, 0x00, 0xe1, 0xd4, 
  0xb5, 0x26, 0xee, 0x37, 0x2c, 0xf5, 0x2a, 0xfd, 0xcd, 0x08, 0x4e, 0x27, 
  0x09, 0x41, 0x5a, 0x55, 0x04, 0x52, 0x81, 0xf1, 0xf1, 0x57, 0x34, 0x02, 
  0x2b, 0x22, 0x1b, 0x30, 0xaf, 0xc9, 0xc0, 0xcd, 0xe4, 0x08, 0xad, 0x99, 
  0xcf, 0x29, 0x08, 0x3c, 0x64, 0x88, 0xde, 0x45, 0xdb, 0x23, 0x17, 0x37, 
  0x60, 0xab, 0x49, 0xa2, 0xf0, 0xa9, 0xc3, 0x52, 0x27, 0xed, 0x9a, 0x00, 
  0xc8, 0xe7, 0x52, 0x2b, 0x1a, 0x03, 0x26, 0xd2, 0x51, 0x92, 0x2f, 0xef, 
  0xc9, 0xab, 0x27, 0x9c, 0xd0, 0x64, 0x95, 0x91, 0xbb, 0xf9, 0x3e, 0xf7, 
  0xf0, 0xa6, 0x55, 0x04, 0xc0, 0x07, 0x2d, 0xf7, 0x20, 0x47, 0xe9, 0xc6, 
  0x1d, 0x0e, 0xc3, 0x27, 0xfb, 0xed, 0x5d, 0x16, 0xf8, 0xa8, 0xcc, 0x3c, 
  0x18, 0x9c, 0xc0, 0x1a, 0x00, 0xf7, 0x02, 0xda, 0x94, 0x93, 0xc5, 0x29, 
  0xc4, 0x45, 0x22, 0x35, 0x2f, 0xc3, 0xd7, 0x54, 0x3d, 0x33, 0x3a, 0xd3, 
  0x0f, 0xf3, 0xa8, 0xe2, 0xea, 0x90, 0xbb, 0xf0, 0xa0, 0x4a, 0xc3, 0x23, 
  0x08, 0xb3, 0xa5, 0x54, 0xee, 0x0e, 0xa1, 0xf1, 0x0e, 0x2c, 0x13, 0xa4, 
  0x4c, 0xd4, 0x9d, 0xb7, 0xd4, 0x5d, 0xf0, 0x0e, 0xf2, 0xb8, 0x52, 0xd4, 
  0x34, 0xe6, 0x46, 0x12, 0xc2, 0x5c, 0x1a, 0xe6, 0x2c, 0xeb, 0xfa, 0xd5, 
  0x4d, 0xd0, 0xbd, 0x39, 0x0d, 0xa3, 0xf1, 0xd0, 0xac, 0x05, 0x0c, 0x9d, 
  0xb4, 0x3c, 0xca, 0xd8, 0x26, 0xe1, 0xe5, 0xdc, 0xda, 0x26, 0xeb, 0x90, 
  0x92, 0x1b, 0x9e, 0xb8, 0x0c, 0xbd, 0x2a, 0x13, 0xe2, 0xb8, 0x0d, 0x48, 
  0x9c, 0x40, 0xcd, 0x01, 0xc7, 0xb5, 0xa8, 0xf9, 0x93, 0x88, 0x93, 0xd3, 
  0xf5, 0x5c, 0x59, 0x74, 0xda, 0xfc, 0x90, 0xdd, 0x20, 0x30, 0xec, 0x9b, 
  0xe2, 0xc0, 0xfa, 0x9a, 0xc7, 0xc3, 0xa1, 0x9a, 0x44, 0x38, 0x41, 0xe0, 
  0xe1, 0x20, 0xdc, 0x0e, 0x19, 0x23, 0x20, 0x14, 0xd4, 0x23, 0xe1, 0xe8, 
  0x4a, 0xf7, 0x04, 0xb5, 0xe6, 0xe0, 0x71, 0xea, 0xfc, 0xf4, 0x4b, 0x06, 
  0xe4, 0x0e, 0xce, 0x09, 0x4d, 0x31, 0x0e, 0x2e, 0xc3, 0xed, 0x17, 0xca, 
  0x33, 0xe3, 0xf1, 0x0c, 0x08, 0xf2, 0x2a, 0xcf, 0x21, 0xe9, 0x0b, 0x30, 
  0xf3, 0xd6, 0x34, 0xf8, 0x02, 0xf3, 0x14, 0xcb, 0x2b, 0xfc, 0xf7, 0xf4, 
  0xe2, 0xe2, 0x49, 0x30, 0x10, 0xda, 0x0a, 0xb6, 0xf7, 0xc0, 0x3e, 0xe5, 
  0x31, 0x41, 0x0c, 0xe3, 0xe7, 0xdf, 0x2c, 0x2f, 0x06, 0xe2, 0x1d, 0xf9, 
  0xf9, 0x0e, 0x3a, 0x29, 0x0f, 0x27, 0x04, 0xe6, 0xcd, 0xee, 0x35, 0xfa, 
  0x04, 0x1c, 0x27, 0xee, 0x09, 0x12, 0x25, 0x42, 0x04, 0x03, 0x2a, 0xe9, 
  0x2b, 0xea, 0xe7, 0x21, 0xff, 0xc3, 0x01, 0xb5, 0xdd, 0xe2, 0xf9, 0x2b, 
  0x2a, 0xea, 0xf7, 0xca, 0xf2, 0xfb, 0xd4, 0x2c, 0x04, 0xc7, 0xb3, 0x03, 
  0xbd, 0xfc, 0x25, 0x0d, 0x18, 0x1c, 0xf2, 0x1c, 0xb3, 0x00, 0xf1, 0x12, 
  0xd7, 0x9d, 0x93, 0xc3, 0x07, 0x13, 0x16, 0x32, 0xcc, 0x1f, 0x04, 0xa3, 
  0xc0, 0xcb, 0xbe, 0xcf, 0xc7, 0xc6, 0xc9, 0x22, 0xe6, 0x11, 0x09, 0xfc, 
  0xd7, 0x36, 0xda, 0xd9, 0xf1, 0xc5, 0x11, 0xff, 0xc1, 0xef, 0x13, 0xed, 
  0x37, 0x15, 0x18, 0xe0, 0xd7, 0xfa, 0x1d, 0xc7, 0x46, 0x23, 0x21, 0x1f, 
  0xf2, 0x0a, 0x1d, 0xe6, 0x1f, 0x4f, 0xca, 0x25, 0x09, 0x0c, 0x0f, 0xcf, 
  0x03, 0x1a, 0x7f, 0xe6, 0xc9, 0x1a, 0x56, 0x38, 0x4f, 0x0f, 0xe0, 0xf3, 
  0x1a, 0x0a, 0x1b, 0x3f, 0x07, 0x19, 0x50, 0xf7, 0x09, 0xf8, 0x4c, 0xd7, 
  0x09, 0x0a, 0x52, 0x14, 0x30, 0x3f, 0x19, 0x2d, 0x00, 0x41, 0x22, 0x27, 
  0x1c, 0xe6, 0x34, 0xbb, 0xf6, 0x07, 0x40, 0xfa, 0x0d, 0x1d, 0xf2, 0xb1, 
  0xfb, 0xe8, 0x34, 0xf9, 0x13, 0x03, 0x4e, 0x0d, 0x2a, 0xed, 0xe4, 0x29, 
  0x4b, 0xe6, 0x0a, 0xc5, 0xeb, 0x08, 0x32, 0xe7, 0x2b, 0xe2, 0x33, 0xfa, 
  0xce, 0xc0, 0x2e, 0x1c, 0x20, 0x26, 0x0b, 0x08, 0xce, 0x1a, 0x2f, 0xfa, 
  0xe8, 0x08, 0x03, 0xf9, 0xd7, 0xa6, 0x15, 0xff, 0x12, 0xd3, 0x1d, 0x9b, 
  0x07, 0xed, 0xb9, 0xbc, 0xd6, 0xd4, 0xf5, 0xec, 0xac, 0xf6, 0x2e, 0x0c, 
  0x3b, 0xdf, 0x29, 0x1a, 0xb6, 0xf0, 0xba, 0x09, 0xce, 0x0f, 0xfd, 0xeb, 
  0xf9, 0xc4, 0x04, 0xf2, 0xee, 0xd8, 0x24, 0xbe, 0xe9, 0xe1, 0xe3, 0xe9, 
  0xb1, 0xbb, 0xe2, 0xe6, 0x3f, 0x0c, 0xc5, 0xf6, 0xce, 0x21, 0xe1, 0xd0, 
  0x11, 0x16, 0x0a, 0xd2, 0xff, 0xf1, 0x52, 0xf8, 0x4b, 0x20, 0xc1, 0xb9, 
  0xf1, 0xf7, 0xf6, 0x57, 0x2d, 0x3b, 0x2d, 0xd2, 0x09, 0xec, 0x28, 0x0a, 
  0xf0, 0x1f, 0xf3, 0xd7, 0xeb, 0xf0, 0xd2, 0xf4, 0x4b, 0x24, 0x67, 0xb1, 
  0xf2, 0x34, 0x35, 0xc6, 0xe9, 0xed, 0x34, 0x1f, 0x40, 0x29, 0x31, 0x54, 
  0xd7, 0x32, 0x08, 0xcb, 0x02, 0xba, 0xdf, 0x25, 0x1a, 0x19, 0xc0, 0xe5, 
  0xef, 0xda, 0xee, 0xfc, 0xed, 0x25, 0x11, 0xec, 0x3c, 0xee, 0xf2, 0x21, 
  0xf9, 0x00, 0x1b, 0xe9, 0x2a, 0x03, 0x1d, 0x1a, 0xe6, 0xde, 0xeb, 0x10, 
  0xf4, 0xd7, 0xf7, 0x01, 0xde, 0x17, 0xc4, 0x17, 0x0b, 0x00, 0x07, 0x0d, 
  0xef, 0x18, 0x1d, 0x2f, 0xfa, 0xe9, 0xeb, 0xd5, 0xf7, 0xe1, 0xe2, 0xe6, 
  0xe7, 0x14, 0x1e, 0xf3, 0xcf, 0x0c, 0x0a, 0xf6, 0x30, 0xdd, 0xe4, 0x41, 
  0x35, 0xf8, 0x22, 0x2a, 0xf2, 0xfb, 0xf4, 0x23, 0x09, 0xd5, 0xf3, 0x32, 
  0x03, 0x1d, 0xf7, 0x3d, 0x2c, 0x25, 0xfa, 0x39, 0xd0, 0xf8, 0x24, 0x39, 
  0x24, 0xce, 0xd3, 0xe9, 0x19, 0xe2, 0xa2, 0x4c, 0x23, 0xf0, 0xdc, 0xd6, 
  0x1b, 0xe4, 0xf3, 0x11, 0xf7, 0xd8, 0xc4, 0xfd, 0x19, 0xd4, 0xc4, 0x53, 
  0x3d, 0xf5, 0xcc, 0xee, 0xd1, 0x11, 0xfe, 0x7f, 0xf6, 0xce, 0x1b, 0xc5, 
  0x2c, 0x27, 0x19, 0x0f, 0x01, 0x17, 0xcd, 0xfe, 0x18, 0x11, 0xdd, 0x2a, 
  0xd6, 0x01, 0xcf, 0xe9, 0x1d, 0xfd, 0xcf, 0x03, 0x12, 0x15, 0x05, 0x07, 
  0xef, 0x2b, 0x0a, 0x08, 0x04, 0x02, 0xf1, 0x12, 0x25, 0x2c, 0xb5, 0x15, 
  0x0d, 0xe7, 0xef, 0x17, 0xc4, 0x1c, 0x20, 0x22, 0xc1, 0x1a, 0xae, 0x23, 
  0x17, 0x0c, 0x16, 0x40, 0x28, 0xdc, 0x1a, 0x0e, 0xf8, 0x0a, 0xf3, 0x1c, 
  0x14, 0xf3, 0xd5, 0x33, 0x13, 0x04, 0x25, 0x41, 0x3a, 0x1a, 0x40, 0xf1, 
  0xd4, 0xe8, 0xd6, 0x0e, 0x39, 0x11, 0xc3, 0x24, 0xdd, 0x40, 0x1c, 0x42, 
  0x1c, 0x22, 0x13, 0x23, 0x18, 0xe8, 0x09, 0x31, 0x41, 0x19, 0xdd, 0xf4, 
  0x0f, 0x25, 0x26, 0x24, 0x2f, 0xf3, 0xee, 0xeb, 0xb9, 0x29, 0xf7, 0x0c, 
  0x28, 0x0d, 0x15, 0xdb, 0xe2, 0x2c, 0xb7, 0x47, 0x19, 0x16, 0xae, 0xf8, 
  0xfc, 0xfb, 0x13, 0x13, 0x08, 0x1d, 0x26, 0xe0, 0xf5, 0xff, 0xf6, 0x1f, 
  0xe4, 0xe9, 0xd3, 0xb2, 0x28, 0xda, 0x2d, 0x18, 0x28, 0xf8, 0x1e, 0x22, 
  0x1e, 0xbf, 0xe0, 0xf4, 0x24, 0xce, 0x33, 0xd1, 0xd8, 0x2d, 0x17, 0xcd, 
  0xed, 0x09, 0xb2, 0x40, 0x2e, 0x14, 0xef, 0x41, 0x1e, 0x36, 0x0d, 0xf4, 
  0xc7, 0xe6, 0xe2, 0xd8, 0xc3, 0x3e, 0xb4, 0xff, 0xe5, 0x0b, 0xd9, 0x3a, 
  0x0c, 0x07, 0xf0, 0xf6, 0xf6, 0x39, 0x28, 0x41, 0xfa, 0xf9, 0x16, 0x20, 
  0x1f, 0x01, 0xe8, 0x3d, 0x27, 0x0e, 0x44, 0x2b, 0xef, 0xfd, 0x30, 0xff, 
  0x18, 0x1d, 0x25, 0x45, 0x06, 0x17, 0xbf, 0xfe, 0x01, 0x17, 0xe0, 0x35, 
  0xdb, 0x2a, 0xd7, 0x31, 0xd9, 0x04, 0xdc, 0xfa, 0xe3, 0x10, 0xc8, 0x3c, 
  0x23, 0x3a, 0xd3, 0x08, 0xcb, 0xed, 0x28, 0xf1, 0x41, 0xf5, 0x19, 0xd5, 
  0xf1, 0x01, 0xf9, 0x5a, 0xc5, 0x3d, 0xd9, 0xc7, 0xed, 0xcd, 0x01, 0x36, 
  0xe8, 0x26, 0xee, 0x0b, 0x1b, 0x14, 0xd3, 0xd5, 0xed, 0x0e, 0x0c, 0xe2, 
  0x22, 0x15, 0xdd, 0xf7, 0x2a, 0xea, 0x26, 0xed, 0xec, 0xd0, 0x05, 0x1c, 
  0xe5, 0x3d, 0xd3, 0x66, 0x4a, 0x98, 0xc5, 0x3f, 0x17, 0x36, 0xee, 0xc6, 
  0xe2, 0x9a, 0xb1, 0xc5, 0xc6, 0xbf, 0xbd, 0xc6, 0x36, 0x89, 0x07, 0xae, 
  0xb8, 0xbb, 0x42, 0x16, 0xc2, 0xe4, 0x8a, 0xa4, 0xde, 0x0f, 0x10, 0x39, 
  0xbe, 0x26, 0x43, 0xd0, 0x88, 0xad, 0x1f, 0xc9, 0xe1, 0xee, 0x94, 0x33, 
  0x99, 0x04, 0x31, 0x85, 0x04, 0xd4, 0x41, 0xf3, 0x4f, 0xa4, 0x09, 0x12, 
  0xb3, 0x98, 0xa8, 0x30, 0x12, 0xb5, 0xd9, 0x73, 0xe4, 0xb0, 0x4a, 0xee, 
  0x2b, 0x2a, 0x93, 0x13, 0x8e, 0xbf, 0x0a, 0x09, 0xdf, 0xb7, 0x8c, 0xe6, 
  0xd3, 0x3a, 0x99, 0x0f, 0xd1, 0xa4, 0xe8, 0xac, 0xf4, 0x19, 0xff, 0xf2, 
  0x8c, 0x04, 0x5a, 0x57, 0x0e, 0xb4, 0x6f, 0x00, 0xe8, 0x67, 0xb9, 0x11, 
  0x63, 0xed, 0x8d, 0x54, 0xf5, 0x5c, 0x93, 0x04, 0xac, 0xc9, 0xdd, 0xaa, 
  0xed, 0xf6, 0x2f, 0x34, 0xe3, 0xa0, 0x4b, 0xb7, 0x4f, 0xbe, 0x9b, 0xed, 
  0xa5, 0xe4, 0xa4, 0xee, 0x8b, 0xef, 0x61, 0xa9, 0xe0, 0xed, 0x9c, 0x13, 
  0x0d, 0x56, 0xf3, 0x55, 0x42, 0x67, 0xa6, 0xa3, 0x41, 0x2a, 0x62, 0x43, 
  0xec, 0x9c, 0x98, 0x45, 0x19, 0xb2, 0x2b, 0x24, 0xb7, 0x31, 0xfc, 0xd4, 
  0x94, 0xff, 0x54, 0xd1, 0xa6, 0x53, 0x02, 0xea, 0x9b, 0x11, 0xae, 0x03, 
  0x87, 0xc4, 0x68, 0xf7, 0x15, 0x0a, 0xe2, 0x59, 0x4b, 0x2e, 0x70, 0xd4, 
  0xf0, 0xd5, 0x6b, 0x81, 0xe5, 0xf2, 0x64, 0x35, 0x27, 0x16, 0x64, 0x9d, 
  0x2b, 0xff, 0x2f, 0x1e, 0x9e, 0x10, 0x5b, 0x4f, 0x07, 0xf0, 0x99, 0x23, 
  0xfb, 0xc1, 0x15, 0x9b, 0x22, 0x4e, 0x0c, 0x40, 0xb2, 0x1e, 0x32, 0x88, 
  0x40, 0x17, 0x3e, 0xe2, 0x3c, 0xbf, 0x56, 0xd6, 0xae, 0xb4, 0x4b, 0x18, 
  0x96, 0xc7, 0x04, 0xdb, 0xe8, 0xc3, 0xf4, 0x44, 0x40, 0x6d, 0xcb, 0x3e, 
  0x93, 0x24, 0x05, 0x64, 0xd8, 0x4e, 0x2d, 0xc0, 0x34, 0x3b, 0x00, 0x4f, 
  0xaa, 0xdf, 0xf2, 0x74, 0xc0, 0xae, 0x11, 0xc0, 0xb7, 0xd4, 0x8e, 0xc0, 
  0x26, 0x2b, 0x52, 0x71, 0xbf, 0x1f, 0xa4, 0x3f, 0x27, 0x52, 0x98, 0x48, 
  0xc1, 0xa1, 0xa5, 0xb9, 0x13, 0xad, 0x4e, 0x75, 0x3e, 0x65, 0x8c, 0xeb, 
  0x63, 0x40, 0x64, 0x11, 0x5a, 0xfa, 0x48, 0x0c, 0x21, 0x19, 0x25, 0xb0, 
  0x58, 0xcc, 0xcc, 0xfe, 0x18, 0x56, 0x41, 0x8f, 0xa9, 0xea, 0x19, 0x96, 
  0x17, 0x68, 0x57, 0xb9, 0xdd, 0x87, 0x2d, 0xac, 0xf2, 0x1d, 0x6e, 0x8f, 
  0x31, 0x9b, 0x9a, 0xd4, 0x61, 0x2d, 0x1f, 0xa5, 0xbd, 0x2c, 0x50, 0x44, 
  0x09, 0x28, 0x8c, 0xa8, 0x1d, 0xdf, 0x45, 0xd7, 0xef, 0x90, 0xfc, 0x62, 
  0x1b, 0x70, 0xa3, 0x70, 0x36, 0x40, 0x71, 0x27, 0x51, 0xbc, 0x06, 0xdd, 
  0x9b, 0x85, 0x41, 0x1a, 0xcd, 0x92, 0xe2, 0x4a, 0x9a, 0xfa, 0x3f, 0x97, 
  0x2f, 0xb5, 0xc6, 0xb9, 0x3d, 0xcc, 0x9a, 0x8e, 0xcf, 0x63, 0x99, 0xb2, 
  0x4a, 0x3f, 0x29, 0x23, 0x1b, 0xcd, 0xd6, 0xe1, 0xf6, 0xf7, 0xbc, 0xfd, 
  0x4c, 0x30, 0x33, 0x10, 0x45, 0xf9, 0xea, 0xa3, 0xd3, 0x2d, 0x2e, 0x40, 
  0x1a, 0x39, 0x4c, 0x82, 0xea, 0x2e, 0x33, 0xf2, 0x32, 0xd4, 0x1f, 0x1c, 
  0xef, 0xb2, 0x0b, 0x1f, 0x4c, 0x20, 0x31, 0xa7, 0x26, 0x0c, 0x00, 0xd1, 
  0xe9, 0xd6, 0xf1, 0xfd, 0xbe, 0xba, 0x19, 0x49, 0xea, 0x1e, 0xd0, 0xfc, 
  0x3d, 0xd4, 0x28, 0xac, 0xc4, 0xcf, 0xfe, 0xa6, 0xf2, 0x31, 0xf6, 0x2d, 
  0xc8, 0x30, 0xe0, 0x95, 0x34, 0xe1, 0xdb, 0x2e, 0xcb, 0xe5, 0x11, 0x9c, 
  0xd8, 0x10, 0xf8, 0x18, 0x09, 0x1a, 0x3b, 0xcc, 0xcf, 0x0c, 0x54, 0x2b, 
  0x1e, 0xb4, 0x6a, 0xbc, 0x2a, 0xff, 0x1d, 0x03, 0x58, 0xd6, 0xe0, 0xe3, 
  0x3f, 0x22, 0x61, 0x20, 0x2e, 0xe2, 0x25, 0xf4, 0x49, 0x1c, 0x35, 0x4c, 
  0x22, 0xc2, 0xfc, 0xad, 0xc8, 0x28, 0x2d, 0xd2, 0x1b, 0xca, 0xf4, 0xb4, 
  0xd9, 0x20, 0xd1, 0xf8, 0x32, 0x4f, 0xc1, 0x8a, 0x24, 0x2b, 0x62, 0xaa, 
  0xa7, 0xeb, 0x6b, 0xb9, 0x22, 0x1a, 0x10, 0x22, 0x1e, 0x32, 0xed, 0x90, 
  0xd7, 0x28, 0x62, 0x0e, 0xf3, 0x91, 0x66, 0xfd, 0x1b, 0x0a, 0x0d, 0x3a, 
  0x25, 0x42, 0x06, 0xb5, 0x0a, 0x16, 0x7c, 0x04, 0x22, 0x30, 0xe3, 0xbf, 
  0xec, 0x4e, 0x58, 0xfc, 0x5e, 0x22, 0x42, 0xe1, 0xfd, 0xee, 0x01, 0xbb, 
  0xbf, 0x08, 0x65, 0xb7, 0x4e, 0xd2, 0xfc, 0x01, 0xf6, 0x33, 0xc8, 0x0c, 
  0xbd, 0x07, 0x4b, 0x83, 0xf0, 0xaa, 0x1f, 0xcd, 0x13, 0xdd, 0x1c, 0x38, 
  0x3b, 0xd9, 0xe0, 0xff, 0xdd, 0x1e, 0x19, 0xfd, 0xd3, 0xc3, 0x51, 0xf5, 
  0x33, 0x00, 0x6b, 0xe6, 0x0c, 0x51, 0x10, 0xbb, 0x1c, 0xd2, 0x2f, 0xee, 
  0x0b, 0xcd, 0xe4, 0x05, 0x27, 0xf7, 0x33, 0x40, 0xdf, 0x49, 0xe0, 0xbb, 
  0xfb, 0x14, 0x51, 0x11, 0xf6, 0xd1, 0xf5, 0xd7, 0x02, 0xc0, 0x27, 0x2a, 
  0x3e, 0x3a, 0xd1, 0xdc, 0xd2, 0xd1, 0xec, 0xbe, 0x01, 0xab, 0x1a, 0xd3, 
  0xe5, 0x17, 0x1e, 0x03, 0x29, 0x13, 0xec, 0x17, 0x37, 0x03, 0x3a, 0xd7, 
  0xae, 0xa6, 0x12, 0x83, 0x37, 0x0c, 0x53, 0xf1, 0x44, 0xf7, 0x2d, 0xb8, 
  0xbb, 0xb5, 0x19, 0x81, 0xc7, 0xcb, 0xec, 0xf0, 0x1e, 0x27, 0xbb, 0x24, 
  0x1f, 0xd7, 0x14, 0xfa, 0x01, 0x24, 0x15, 0x95, 0xce, 0x1d, 0xe8, 0x00, 
  0xf2, 0x0b, 0x18, 0x03, 0x0a, 0x25, 0xb9, 0xbb, 0xcb, 0xdf, 0xe8, 0x9c, 
  0xd4, 0xa3, 0x66, 0x2b, 0xd2, 0xfd, 0x01, 0xb8, 0xfb, 0x20, 0xcc, 0xe6, 
  0x0f, 0xfa, 0xfa, 0xd0, 0x3a, 0xb2, 0xf5, 0x8b, 0x25, 0xa8, 0x4a, 0xdf, 
  0x42, 0xfb, 0x43, 0x16, 0xc8, 0xf0, 0x35, 0xbc, 0xf0, 0xbb, 0xda, 0x99, 
  0x19, 0xf7, 0xe1, 0xd7, 0x09, 0xe3, 0x27, 0x28, 0xca, 0xcd, 0xee, 0x89, 
  0xc4, 0x0b, 0xf4, 0xf2, 0x3e, 0x16, 0x06, 0x14, 0x17, 0x55, 0xe0, 0xdd, 
  0x8e, 0x14, 0xe8, 0xbb, 0xda, 0xc1, 0x04, 0xa3, 0x19, 0xa2, 0x25, 0x1a, 
  0x15, 0x2b, 0x29, 0xde, 0xae, 0xdf, 0xf8, 0x27, 0x28, 0xf3, 0xcf, 0x20, 
  0xf4, 0x1b, 0xdb, 0x43, 0x2b, 0x03, 0x1a, 0xe2, 0xf2, 0x25, 0x9a, 0x20, 
  0x24, 0x11, 0xb4, 0xed, 0xe5, 0xfc, 0x29, 0x0f, 0xe8, 0xd3, 0xcc, 0x29, 
  0xe8, 0xd2, 0x13, 0xf6, 0xc4, 0x0b, 0xce, 0xea, 0x1d, 0x48, 0xf0, 0x43, 
  0x05, 0xc8, 0xd5, 0x3b, 0x35, 0x06, 0xda, 0x30, 0xb9, 0xec, 0xf6, 0x20, 
  0xfd, 0x40, 0xfd, 0x47, 0xf5, 0xe6, 0x13, 0x1f, 0x4c, 0xee, 0x25, 0xc7, 
  0xcf, 0x16, 0xf2, 0x17, 0x04, 0x2c, 0xcf, 0x23, 0x02, 0xde, 0xe8, 0x42, 
  0x1b, 0xc6, 0xe2, 0xaf, 0x04, 0x08, 0xc2, 0x3b, 0xdf, 0x42, 0xf4, 0xd8, 
  0xa1, 0xb9, 0xd8, 0xfc, 0xdf, 0x18, 0x13, 0xc7, 0x02, 0xbc, 0x0c, 0x32, 
  0xb6, 0xde, 0xbe, 0xa6, 0x12, 0xf7, 0xe6, 0xf8, 0x36, 0xed, 0xe0, 0x0c, 
  0x1f, 0x99, 0x03, 0xaa, 0xcd, 0xd1, 0x04, 0xcb, 0x25, 0x23, 0xe1, 0xc3, 
  0x13, 0x09, 0x1d, 0x45, 0xec, 0xeb, 0xdc, 0xa4, 0xdc, 0xb7, 0x5b, 0xd2, 
  0x18, 0x51, 0x0e, 0x04, 0xb6, 0x39, 0xa8, 0x06, 0x28, 0xf7, 0xb4, 0xc6, 
  0xff, 0x28, 0x40, 0x22, 0x4a, 0x07, 0xed, 0x02, 0xd1, 0xf3, 0xdd, 0x48, 
  0x0e, 0x05, 0xad, 0x59, 0x4c, 0x4e, 0x06, 0x5f, 0xcc, 0x2b, 0xf0, 0x3b, 
  0x22, 0xf2, 0xe5, 0xf1, 0xe2, 0x11, 0x17, 0x5b, 0xed, 0x3e, 0x37, 0xfe, 
  0xcf, 0xfc, 0xea, 0x4d, 0x0a, 0x96, 0x0e, 0x0e, 0xa6, 0x27, 0xba, 0x0f, 
  0x2e, 0x47, 0xb6, 0xf8, 0xcb, 0xb9, 0xda, 0xfa, 0x49, 0xff, 0x42, 0xb6, 
  0x21, 0xc6, 0x04, 0x48, 0xe7, 0x26, 0xc8, 0x8a, 0xd3, 0x09, 0xff, 0xd8, 
  0x34, 0xd1, 0x25, 0xcf, 0xf3, 0x0f, 0x3c, 0xc1, 0xe1, 0xdb, 0xb2, 0xc5, 
  0x1c, 0xe8, 0xe7, 0xee, 0x34, 0x21, 0xe6, 0xf4, 0x24, 0xc8, 0x03, 0xbf, 
  0xaf, 0xd9, 0xf8, 0xc1, 0x0b, 0xfe, 0x0d, 0xa1, 0xce, 0xeb, 0xd0, 0x0d, 
  0x0f, 0xd9, 0xe5, 0x83, 0xf6, 0xb5, 0x4d, 0x55, 0x26, 0x1b, 0xd7, 0x81, 
  0x05, 0x27, 0x9d, 0x2c, 0x2b, 0xdd, 0x9e, 0xee, 0x20, 0x24, 0x2d, 0x37, 
  0x10, 0x27, 0xf2, 0xc2, 0xde, 0xd6, 0x0b, 0x27, 0xde, 0x00, 0xf7, 0x5c, 
  0x0a, 0x04, 0xef, 0x5c, 0x06, 0x52, 0x2a, 0x5b, 0xec, 0xee, 0x23, 0x55, 
  0xb8, 0x01, 0xf8, 0x08, 0x31, 0x44, 0x11, 0x0e, 0xeb, 0xee, 0x04, 0xe8, 
  0x4a, 0xc5, 0xea, 0x40, 0xa1, 0xed, 0x34, 0x4d, 0x2a, 0x3d, 0xfe, 0xd2, 
  0xc9, 0x27, 0x15, 0x0e, 0x42, 0x0e, 0x44, 0xc1, 0xbe, 0x1c, 0x06, 0x10, 
  0xfb, 0x11, 0xe4, 0xdc, 0x02, 0x0e, 0x15, 0x41, 0x2c, 0xd2, 0x3d, 0xdf, 
  0x00, 0xa6, 0x14, 0x31, 0xe1, 0xc4, 0xe9, 0xa1, 0x09, 0x01, 0xd1, 0xf5, 
  0x01, 0x3b, 0x0f, 0x00, 0x2d, 0xb4, 0x06, 0xac, 0xff, 0xfd, 0xd8, 0xe2, 
  0x1b, 0xef, 0xc8, 0x17, 0xd7, 0x1a, 0xc8, 0xd5, 0xe2, 0x05, 0xcb, 0xf0, 
  0xe6, 0xf7, 0xed, 0x14, 0xef, 0x0d, 0xd5, 0x57, 0x1a, 0xf6, 0x24, 0xf3, 
  0xed, 0xfa, 0xfa, 0xcf, 0x22, 0xcf, 0xfd, 0xfa, 0x36, 0x17, 0x0b, 0xf6, 
  0xc3, 0x26, 0xfd, 0xf4, 0xc7, 0x23, 0x12, 0xf8, 0xf9, 0xe1, 0xd8, 0x19, 
  0x2e, 0xe1, 0x08, 0xb6, 0x0d, 0x2f, 0x5d, 0x23, 0xce, 0x4a, 0x6a, 0x2f, 
  0x27, 0x0d, 0x38, 0x3e, 0x0d, 0x2e, 0xfd, 0xbc, 0xd9, 0xdb, 0x53, 0xc6, 
  0x27, 0x4e, 0x37, 0xcb, 0xf5, 0xea, 0x05, 0xdc, 0x3c, 0xf0, 0xf2, 0xf8, 
  0x16, 0xc9, 0x04, 0xbb, 0x02, 0x11, 0x1f, 0xd0, 0x2f, 0x1e, 0x37, 0xf7, 
  0x30, 0x14, 0x33, 0xcd, 0xf5, 0xd6, 0xe4, 0xce, 0x03, 0xde, 0xf5, 0x09, 
  0xb6, 0xd3, 0xd2, 0x24, 0xeb, 0xf5, 0xe9, 0x05, 0xcc, 0x1e, 0xd0, 0x20, 
  0xc0, 0x46, 0x4b, 0xa9, 0x2e, 0x21, 0x25, 0x2c, 0xf7, 0x0d, 0xd0, 0xd9, 
  0xbe, 0x14, 0xfc, 0xe7, 0x0f, 0xd0, 0x5b, 0x12, 0x28, 0x37, 0x11, 0x41, 
  0xdf, 0x05, 0x2d, 0x19, 0xd2, 0xe1, 0xfe, 0xab, 0xce, 0x36, 0x03, 0xc5, 
  0x30, 0xf0, 0x21, 0xcc, 0x0e, 0x26, 0xfe, 0xd2, 0x28, 0x15, 0x60, 0xcf, 
  0x03, 0x44, 0x49, 0x19, 0x07, 0x10, 0xdc, 0x37, 0x5a, 0x00, 0xf3, 0x28, 
  0xda, 0x24, 0xe4, 0x0b, 0x2a, 0x17, 0x39, 0xaf, 0x2f, 0xf5, 0x42, 0xc7, 
  0x3f, 0x1b, 0x17, 0xd5, 0xda, 0x19, 0x3b, 0xf0, 0x16, 0xfd, 0x3c, 0xaf, 
  0xff, 0x2f, 0x38, 0xd6, 0xe1, 0x1e, 0xc6, 0xdc, 0xeb, 0x33, 0x34, 0xf9, 
  0xf6, 0x00, 0x06, 0xdf, 0xc7, 0xfc, 0x13, 0xd8, 0x56, 0x39, 0x21, 0x3f, 
  0xd2, 0x06, 0x3e, 0x13, 0xca, 0x2a, 0x30, 0x16, 0xe0, 0x10, 0x14, 0x34, 
  0x4a, 0xf6, 0xf2, 0x2b, 0xdc, 0x03, 0xcb, 0xc3, 0x3a, 0xf0, 0x37, 0xac, 
  0x39, 0x25, 0xfc, 0xdf, 0xf5, 0x27, 0xcf, 0x42, 0x22, 0xd3, 0x33, 0xf5, 
  0x11, 0xef, 0xeb, 0x16, 0x2d, 0xf2, 0x14, 0xff, 0xdf, 0x26, 0xf5, 0x23, 
  0x0c, 0x19, 0x02, 0x39, 0x04, 0x05, 0x4a, 0xb0, 0x2c, 0x14, 0x1e, 0xd8, 
  0x21, 0xd4, 0xe0, 0x1b, 0xcc, 0xeb, 0x55, 0x11, 0xd5, 0x41, 0xea, 0xfb, 
  0x1b, 0xdd, 0xd9, 0xd7, 0x43, 0x38, 0x3c, 0x2f, 0x16, 0x23, 0xe0, 0xc7, 
  0xe7, 0x0d, 0xfd, 0xab, 0x1b, 0xc6, 0x0d, 0x2f, 0xfe, 0xc3, 0x11, 0x19, 
  0xd1, 0xc3, 0x17, 0xb5, 0xb0, 0x05, 0x7f, 0x03, 0x3e, 0xef, 0xf7, 0xc3, 
  0xcb, 0xf1, 0x09, 0xe3, 0xcf, 0xcf, 0x38, 0xa0, 0xc3, 0x4f, 0xf5, 0xc8, 
  0xf7, 0x23, 0xfe, 0x03, 0x0f, 0x14, 0xd9, 0xdc, 0xc6, 0xe6, 0x31, 0xd5, 
  0xbe, 0xde, 0x3a, 0x0a, 0x20, 0xdb, 0xc6, 0x29, 0xff, 0x2b, 0x1a, 0xfd, 
  0x19, 0x14, 0xde, 0xa2, 0x12, 0x00, 0x45, 0xc8, 0x35, 0x18, 0xd0, 0xe5, 
  0x02, 0xe5, 0x01, 0xc9, 0xf4, 0x02, 0x38, 0x07, 0x27, 0x1c, 0xf0, 0x1b, 
  0xef, 0x04, 0x28, 0xd4, 0xe8, 0x12, 0xd3, 0xdb, 0xec, 0x56, 0x02, 0xfa, 
  0xd5, 0x04, 0xe1, 0xcc, 0xfa, 0x28, 0xce, 0x08, 0x12, 0x1a, 0xe1, 0x0b, 
  0xe1, 0xdf, 0x3d, 0xfd, 0xff, 0x04, 0xd6, 0x2b, 0x22, 0x17, 0xd6, 0x38, 
  0x25, 0xd5, 0x28, 0x25, 0xfd, 0xf1, 0x23, 0xe3, 0xcd, 0xdd, 0xa6, 0xce, 
  0xef, 0xf8, 0x05, 0xe5, 0xdc, 0xce, 0xd5, 0x3d, 0xfc, 0xfd, 0xde, 0x0a, 
  0x2d, 0x12, 0xe6, 0xc8, 0xf5, 0x1e, 0xad, 0xbf, 0xf2, 0x34, 0xc5, 0x36, 
  0x2d, 0xf3, 0xee, 0xfc, 0xe5, 0x0a, 0x08, 0x19, 0xfe, 0xbd, 0x24, 0x0c, 
  0x26, 0x06, 0xee, 0xdd, 0xf8, 0xfc, 0x00, 0x44, 0x01, 0xc9, 0xea, 0xc3, 
  0xec, 0xff, 0x2c, 0xcb, 0xf9, 0xff, 0x2b, 0xba, 0x18, 0x37, 0xd2, 0x53, 
  0x17, 0xd3, 0x2a, 0xfc, 0x22, 0xe9, 0x0f, 0xf8, 0x3c, 0x11, 0xf4, 0x18, 
  0xd5, 0xf5, 0xf3, 0x2c, 0xef, 0x31, 0xec, 0x0c, 0x20, 0xf2, 0xf8, 0x0b, 
  0xe6, 0x31, 0x33, 0x14, 0x20, 0xe6, 0x04, 0xf8, 0x21, 0xf9, 0xce, 0xe5, 
  0xfe, 0x11, 0x46, 0x12, 0xdf, 0x26, 0x0d, 0x2c, 0xe8, 0xea, 0xdc, 0x09, 
  0xee, 0xef, 0xaf, 0x3a, 0x32, 0x38, 0xc3, 0xc9, 0xea, 0x19, 0xc5, 0xf2, 
  0x42, 0xbe, 0x38, 0xe5, 0x11, 0xe7, 0xda, 0x2f, 0xdb, 0xe9, 0xd2, 0xc9, 
  0xc7, 0x0d, 0xc6, 0x43, 0xd8, 0x08, 0x2a, 0xe6, 0x12, 0xec, 0x14, 0x1b, 
  0xc6, 0x20, 0xa8, 0xd7, 0xb3, 0xee, 0xc8, 0xeb, 0xcb, 0xe4, 0xf6, 0xfd, 
  0xf7, 0xd5, 0xd6, 0x0d, 0x11, 0xf4, 0x1d, 0xcc, 0x14, 0x29, 0xdf, 0x81, 
  0xf6, 0x0c, 0xea, 0xe3, 0x37, 0xe6, 0xeb, 0xdc, 0xda, 0xd9, 0xeb, 0xfa, 
  0xde, 0x14, 0xed, 0xcd, 0xf2, 0x15, 0xe6, 0x18, 0x31, 0xf0, 0xe9, 0xd9, 
  0xf6, 0xcc, 0x20, 0x01, 0x2a, 0x33, 0x3a, 0xab, 0xf5, 0x23, 0xea, 0x56, 
  0x2d, 0xda, 0xd7, 0xd5, 0x3b, 0x1a, 0xfc, 0xf8, 0x0c, 0x3e, 0xed, 0xad, 
  0x0a, 0xd6, 0x14, 0xef, 0xd0, 0xeb, 0xf1, 0x1d, 0x3e, 0x24, 0x38, 0x32, 
  0xaa, 0x08, 0xec, 0x39, 0x3e, 0xd7, 0xf5, 0x11, 0xe0, 0xdc, 0x27, 0x23, 
  0x02, 0x10, 0xc6, 0x2d, 0xa5, 0xfb, 0xdb, 0x1e, 0xfe, 0x07, 0x03, 0x25, 
  0x20, 0xc3, 0xf5, 0xea, 0xc5, 0x20, 0x1e, 0xe0, 0xc8, 0xc8, 0x12, 0xe9, 
  0x2e, 0xfb, 0xf4, 0xd6, 0xd7, 0x07, 0xf3, 0x52, 0xff, 0x34, 0xb2, 0x23, 
  0xfd, 0xe4, 0x20, 0xd0, 0xd7, 0x0b, 0x09, 0x1c, 0x33, 0xfa, 0xaf, 0xee, 
  0xc5, 0xe1, 0xfb, 0x16, 0xf7, 0xde, 0xc8, 0xb5, 0x10, 0x27, 0x09, 0x40, 
  0xd9, 0xc7, 0xbf, 0x13, 0xd8, 0xe4, 0x2d, 0xce, 0x0f, 0xd6, 0xde, 0x14, 
  0x11, 0xcb, 0x0e, 0x17, 0x15, 0x1c, 0xc9, 0x27, 0xc3, 0x12, 0x4a, 0x09, 
  0xde, 0x03, 0xe3, 0x15, 0x08, 0x16, 0xba, 0x00, 0xfa, 0x24, 0x0e, 0x28, 
  0xe0, 0xf3, 0x4b, 0x2b, 0xfb, 0x3a, 0x0b, 0xf7, 0x21, 0xaf, 0x23, 0x10, 
  0xcd, 0x1d, 0x19, 0x1b, 0x4d, 0x35, 0x30, 0x22, 0xe6, 0x35, 0x2c, 0xeb, 
  0x07, 0xb9, 0xeb, 0x2c, 0x25, 0xbb, 0x0b, 0x0b, 0x05, 0x3c, 0xc6, 0x12, 
  0xe9, 0x03, 0xc9, 0xd8, 0xf0, 0xc9, 0x3a, 0xe2, 0x3e, 0xca, 0xfe, 0x02, 
  0xe1, 0xe8, 0xd0, 0xf6, 0xfb, 0x0e, 0x38, 0x73, 0xe7, 0x0b, 0xd9, 0xef, 
  0xd4, 0x15, 0xf8, 0xef, 0x20, 0xcf, 0xf9, 0x36, 0x1f, 0x1e, 0x3b, 0xd0, 
  0x09, 0x2f, 0x02, 0xe1, 0x1e, 0x2c, 0xcf, 0xc9, 0x2c, 0x1e, 0xe2, 0xf7, 
  0x27, 0x01, 0x30, 0x21, 0xde, 0x3a, 0xcd, 0x14, 0xe9, 0x0c, 0xd6, 0xde, 
  0x3d, 0xf7, 0x15, 0xec, 0xfc, 0x2c, 0x09, 0x58, 0xea, 0xb9, 0xdb, 0xce, 
  0xe6, 0xea, 0xfb, 0x26, 0x46, 0x35, 0xa6, 0xc8, 0x18, 0xfd, 0xf0, 0x2c, 
  0x4c, 0xff, 0x07, 0x05, 0x0d, 0xf0, 0xf5, 0x03, 0x15, 0x27, 0xe4, 0xcd, 
  0x1a, 0x13, 0xdf, 0x54, 0xda, 0xeb, 0x08, 0xf8, 0x2e, 0x18, 0xfe, 0x21, 
  0xc6, 0xe5, 0xfc, 0x00, 0x2b, 0x0d, 0x36, 0xe4, 0xfb, 0x27, 0xa9, 0x04, 
  0x0d, 0x03, 0x2f, 0x3a, 0xee, 0xd4, 0x07, 0x15, 0x1e, 0x35, 0x3b, 0x0e, 
  0x1b, 0x4f, 0x13, 0x28, 0xf7, 0x05, 0x1a, 0xe9, 0xfc, 0xe2, 0xff, 0xfd, 
  0x2d, 0xd6, 0x29, 0x3d, 0xe3, 0xdc, 0x02, 0x46, 0xec, 0x73, 0xd2, 0xf5, 
  0x3f, 0xea, 0xbb, 0xe6, 0xeb, 0xc9, 0x21, 0x1f, 0x25, 0x03, 0xde, 0x14, 
  0x18, 0xe3, 0xcb, 0x30, 0x07, 0x0f, 0xb2, 0xec, 0xb1, 0x1b, 0x07, 0x7b, 
  0x06, 0x3d, 0x12, 0x0e, 0x35, 0x2a, 0x14, 0x16, 0xdb, 0x24, 0xd9, 0x01, 
  0xe3, 0xb5, 0x12, 0x07, 0xe0, 0xd0, 0xaf, 0xfb, 0xfa, 0x44, 0x4b, 0xd2, 
  0x12, 0x02, 0xf2, 0xf5, 0xe3, 0xc4, 0x11, 0x00, 0xd3, 0x51, 0x1f, 0x16, 
  0x2d, 0x04, 0x47, 0xda, 0x2b, 0xfd, 0x1d, 0x2a, 0x29, 0xd1, 0x1b, 0x1d, 
  0xdc, 0xe1, 0xb8, 0x47, 0xfc, 0xf6, 0xeb, 0xed, 0x26, 0x3d, 0xd9, 0x0c, 
  0xe2, 0x34, 0xc6, 0x37, 0x2e, 0xed, 0xb7, 0x3d, 0xb9, 0x4d, 0xc8, 0x21, 
  0x05, 0x20, 0x0e, 0x16, 0x03, 0xf9, 0x03, 0x7f, 0x25, 0xee, 0xf1, 0xfa, 
  0xe2, 0x03, 0x15, 0xed, 0xf8, 0xe4, 0x29, 0x0f, 0xb8, 0xe1, 0xe2, 0x49, 
  0x4a, 0x00, 0xae, 0xee, 0xe4, 0xfe, 0x00, 0x1c, 0x28, 0x0a, 0xed, 0x90, 
  0xe0, 0x10, 0xf2, 0x61, 0xdb, 0x19, 0x1f, 0x54, 0xc8, 0x3a, 0xe3, 0x14, 
  0xdc, 0x1d, 0xe1, 0x26, 0xbf, 0xf4, 0x06, 0xf6, 0xd9, 0x17, 0xb8, 0x00, 
  0x2d, 0x40, 0xde, 0xde, 0xf4, 0x2b, 0x33, 0xea, 0x07, 0x39, 0x22, 0xe5, 
  0x22, 0x3e, 0xd9, 0x48, 0xd9, 0x4d, 0x00, 0x2d, 0xe9, 0x30, 0xf3, 0x35, 
  0x35, 0x29, 0x27, 0x39, 0xfc, 0xe0, 0x09, 0xeb, 0xb9, 0xf3, 0xaa, 0x1f, 
  0x16, 0x38, 0x20, 0x4c, 0xb9, 0xef, 0xf3, 0xf6, 0x04, 0x13, 0x00, 0x07, 
  0x29, 0x10, 0x21, 0x19, 0xe5, 0x38, 0xe8, 0x04, 0xe5, 0xd3, 0x26, 0xee, 
  0x4c, 0xd7, 0x0d, 0x2c, 0xed, 0xdb, 0xeb, 0x36, 0xdc, 0x37, 0xd2, 0x08, 
  0x22, 0xf6, 0x2e, 0x10, 0x0d, 0x07, 0x27, 0x11, 0x1d, 0x48, 0xd9, 0xed, 
  0xe2, 0xd1, 0xe1, 0x21, 0x1a, 0x27, 0x0c, 0xfe, 0xa9, 0x3f, 0xfa, 0xfb, 
  0x21, 0x29, 0xf0, 0x05, 0xb7, 0xb1, 0x48, 0xca, 0xf5, 0x2b, 0x08, 0xbb, 
  0xd7, 0xc6, 0x15, 0x39, 0xe3, 0x1a, 0x27, 0xed, 0x10, 0x26, 0xee, 0x23, 
  0x37, 0xf9, 0x19, 0xe6, 0xad, 0x21, 0xc9, 0x0f, 0xcc, 0x07, 0x25, 0xd1, 
  0x0c, 0xd6, 0x38, 0x30, 0x16, 0x03, 0x16, 0x09, 0xc6, 0x1d, 0x0e, 0xc0, 
  0x0c, 0x1d, 0xf9, 0x01, 0x37, 0xe2, 0x0f, 0xea, 0x18, 0xdf, 0x2e, 0xce, 
  0xd5, 0xe1, 0xf7, 0x29, 0xc7, 0xc9, 0x79, 0xdb, 0x31, 0xef, 0x22, 0xf3, 
  0xf9, 0x39, 0x1d, 0xde, 0x33, 0x0d, 0x4d, 0x21, 0xb2, 0xd4, 0x53, 0xd6, 
  0xfc, 0x24, 0x38, 0x25, 0x22, 0xe6, 0xfb, 0x5c, 0x00, 0x2a, 0x21, 0xd3, 
  0xe2, 0xc7, 0x68, 0xf9, 0xd5, 0xfe, 0x04, 0x2a, 0xf9, 0x00, 0x18, 0xc2, 
  0x2e, 0xfc, 0xfe, 0x9c, 0x0e, 0xbd, 0x12, 0xd8, 0x29, 0xc0, 0xf5, 0x05, 
  0x34, 0xf2, 0xe8, 0xc5, 0xcf, 0x11, 0x42, 0xd3, 0x10, 0x90, 0x49, 0xff, 
  0x0b, 0xd4, 0x02, 0xdc, 0x1e, 0x3d, 0x39, 0xa7, 0xb3, 0x31, 0xe1, 0x2a, 
  0x29, 0x00, 0x30, 0xc0, 0x30, 0xab, 0x34, 0x1f, 0x4a, 0x38, 0xc5, 0xbb, 
  0xd3, 0x07, 0x2d, 0x14, 0x2e, 0xee, 0xc4, 0xa8, 0xe5, 0x09, 0x6f, 0x12, 
  0xf8, 0x47, 0x11, 0xb0, 0x2c, 0x31, 0xd2, 0x1f, 0xfc, 0xfb, 0xa9, 0xe6, 
  0x33, 0xe6, 0x11, 0xef, 0x29, 0x0a, 0xe1, 0xcf, 0xca, 0xff, 0xec, 0x25, 
  0x35, 0xef, 0xab, 0xfb, 0xe4, 0xef, 0x5f, 0x39, 0xfd, 0xef, 0xe6, 0x14, 
  0xbb, 0xc6, 0xc8, 0xa0, 0xa4, 0xf5, 0x14, 0x10, 0xd1, 0x12, 0x58, 0xfc, 
  0x17, 0x14, 0x1f, 0xbc, 0xda, 0xd4, 0x1b, 0xcd, 0xc2, 0xd0, 0x62, 0x34, 
  0xfa, 0x45, 0x0f, 0xed, 0xe8, 0x3b, 0xe9, 0x93, 0x20, 0xdc, 0x64, 0xe7, 
  0x25, 0xf1, 0xea, 0x32, 0xd6, 0xff, 0xe3, 0x32, 0x4a, 0xd7, 0x07, 0xc0, 
  0x03, 0x34, 0x7f, 0xc5, 0x2a, 0xbf, 0x0d, 0xf3, 0x18, 0x42, 0xfc, 0xc9, 
  0x0a, 0xd3, 0xe4, 0xf1, 0x01, 0xf2, 0x49, 0xaa, 0xf2, 0x04, 0x16, 0xef, 
  0x30, 0xc0, 0xe1, 0xed, 0x06, 0x4b, 0x00, 0xc0, 0xd6, 0x3b, 0xf2, 0xe0, 
  0xf8, 0x03, 0x0b, 0xe5, 0xdf, 0xb5, 0x3b, 0xeb, 0xee, 0x09, 0xea, 0xb5, 
  0x12, 0x50, 0x49, 0x13, 0x4a, 0x0c, 0x08, 0xf5, 0xd7, 0x13, 0x3d, 0xe3, 
  0x3a, 0x0f, 0x29, 0xdd, 0x15, 0x10, 0xd1, 0xd6, 0x17, 0xe8, 0x52, 0xba, 
  0xe6, 0x15, 0x4e, 0xf3, 0x2b, 0xef, 0xe2, 0xd9, 0xcc, 0x3d, 0xd0, 0xc1, 
  0xd4, 0xf4, 0x1d, 0xb8, 0xff, 0xff, 0xe3, 0x33, 0x0a, 0x25, 0xeb, 0xdf, 
  0x0a, 0xf7, 0xfd, 0xfa, 0x1f, 0xef, 0x12, 0x12, 0xd5, 0xf2, 0x3e, 0x4c, 
  0x10, 0x17, 0x15, 0xaf, 0xbb, 0xca, 0xce, 0xf3, 0x14, 0x10, 0xf7, 0xc3, 
  0x25, 0x1f, 0xb4, 0x16, 0xf1, 0xe0, 0x2b, 0x1a, 0xe7, 0xbe, 0xfd, 0xc2, 
  0x11, 0x3b, 0xf5, 0x3a, 0xf2, 0x2a, 0x1c, 0x1e, 0x0d, 0xd3, 0xc5, 0x52, 
  0xcf, 0x49, 0x04, 0xf4, 0xc3, 0xc9, 0x79, 0x0c, 0x1a, 0xc3, 0x5f, 0xf0, 
  0xf5, 0x18, 0xed, 0xf9, 0xfa, 0x01, 0x0c, 0x16, 0x06, 0x3c, 0xea, 0xcc, 
  0xe3, 0xc5, 0xfc, 0x4c, 0x53, 0xe1, 0x37, 0x8c, 0xc0, 0xe5, 0x2f, 0x2e, 
  0xcf, 0x32, 0x6d, 0xe8, 0xe8, 0xd3, 0xe1, 0x15, 0xfc, 0x39, 0x31, 0xef, 
  0xdb, 0xb7, 0x33, 0x9b, 0xea, 0x11, 0x01, 0xce, 0x03, 0x08, 0x25, 0x34, 
  0x4e, 0x07, 0xd2, 0xcc, 0xd2, 0xf1, 0x44, 0x1b, 0x1a, 0x19, 0x32, 0x13, 
  0xf7, 0x30, 0x0e, 0xc9, 0x51, 0x3a, 0x43, 0xd4, 0xce, 0x01, 0x21, 0x1e, 
  0xfd, 0xb7, 0x34, 0xa1, 0x16, 0x1e, 0x4c, 0x0e, 0xf1, 0x2d, 0x2d, 0x0d, 
  0xf4, 0xfb, 0x49, 0x21, 0xcb, 0xcc, 0x14, 0xf4, 0x26, 0x16, 0x18, 0x35, 
  0x15, 0x44, 0xc4, 0xa9, 0xb7, 0x1a, 0x59, 0xe1, 0xe5, 0xd7, 0x41, 0xa1, 
  0x2a, 0xfa, 0xe7, 0x1d, 0xe5, 0xd7, 0xe4, 0xa1, 0xdc, 0xd3, 0xec, 0xcb, 
  0xc8, 0x0b, 0xec, 0xc4, 0xd4, 0xc7, 0x2d, 0x22, 0x37, 0xd5, 0x16, 0xf4, 
  0x10, 0x24, 0x16, 0xe8, 0xd6, 0xbe, 0x4c, 0xd5, 0x18, 0xc2, 0x51, 0x43, 
  0x63, 0x2d, 0xfb, 0x89, 0xf9, 0x4a, 0x55, 0xb3, 0xd2, 0x2e, 0x43, 0x0c, 
  0x1e, 0x0b, 0xeb, 0xe4, 0x51, 0x26, 0xd7, 0xbd, 0x0c, 0xf9, 0x47, 0xe4, 
  0xe2, 0x08, 0xf1, 0x06, 0x17, 0xee, 0xd4, 0xe0, 0x32, 0x39, 0x35, 0x9b, 
  0xbc, 0xc8, 0x5d, 0x00, 0x19, 0x07, 0x06, 0x9c, 0x32, 0x24, 0xdf, 0x45, 
  0x24, 0x32, 0x38, 0x9b, 0xe0, 0xf8, 0x42, 0x00, 0x21, 0x31, 0xfc, 0xb6, 
  0xd1, 0xd0, 0xee, 0x0b, 0x57, 0x2c, 0x09, 0xf7, 0xd9, 0xf5, 0x12, 0xae, 
  0x36, 0x24, 0xfb, 0xd6, 0xd2, 0xb4, 0xdb, 0x02, 0x56, 0x01, 0xcf, 0xb7, 
  0x38, 0x38, 0x25, 0x00, 0xf8, 0xaa, 0x22, 0x15, 0x36, 0x1a, 0x07, 0x41, 
  0x50, 0x20, 0xdd, 0xbd, 0x34, 0xf9, 0xe7, 0x14, 0x10, 0xc5, 0xf6, 0xbd, 
  0xf6, 0xdf, 0x27, 0xef, 0x20, 0x2d, 0x40, 0xa0, 0xd1, 0x25, 0x26, 0xd4, 
  0xee, 0x45, 0x07, 0xc3, 0xd8, 0x24, 0xf1, 0x15, 0x21, 0x26, 0x0b, 0xbb, 
  0xce, 0x38, 0x1e, 0x9f, 0x09, 0xc6, 0x4a, 0xe4, 0xc6, 0x1d, 0x42, 0x1a, 
  0xde, 0x46, 0xf7, 0xfa, 0xff, 0x2b, 0xfe, 0xf8, 0xe3, 0x23, 0x6c, 0xb3, 
  0xd8, 0x28, 0xc6, 0x09, 0x5a, 0x0d, 0xf0, 0x0a, 0x3a, 0x22, 0x14, 0x0c, 
  0xc7, 0xdb, 0x38, 0xd2, 0x18, 0x07, 0x1b, 0x3f, 0x22, 0x43, 0xc6, 0xd9, 
  0xc3, 0x3b, 0x0c, 0x01, 0xed, 0x28, 0x6b, 0xe6, 0x0d, 0xfb, 0x15, 0x07, 
  0x07, 0x1c, 0x2f, 0x29, 0xd7, 0x18, 0x28, 0x9e, 0xc8, 0xec, 0x42, 0x05, 
  0x35, 0xb6, 0x1c, 0x35, 0xfa, 0xdd, 0xfe, 0xcd, 0x2b, 0xf2, 0xfe, 0x81, 
  0x3c, 0x2c, 0x0c, 0xbd, 0xf7, 0x01, 0xd2, 0x1c, 0xf6, 0xef, 0xf6, 0xd8, 
  0xd4, 0x2f, 0x22, 0xf4, 0x31, 0x2c, 0xe8, 0x1b, 0xd7, 0x37, 0xe0, 0xdc, 
  0x15, 0x43, 0x23, 0xd9, 0x24, 0x09, 0x07, 0xfc, 0x22, 0x31, 0x25, 0xfb, 
  0xd1, 0x3e, 0x01, 0x0d, 0xfb, 0xf4, 0xf8, 0x45, 0xe9, 0xe0, 0xf6, 0x0a, 
  0xeb, 0xfd, 0xf7, 0x29, 0xd3, 0x2d, 0xbd, 0xdc, 0xd5, 0x2a, 0x2c, 0xdc, 
  0xee, 0x06, 0x26, 0xfa, 0xd5, 0xbb, 0xe9, 0x1a, 0x0d, 0x26, 0x06, 0xcf, 
  0xf1, 0xd9, 0x1c, 0x32, 0xdd, 0x36, 0xf1, 0xf6, 0x2b, 0x19, 0x2b, 0xd5, 
  0x0f, 0xe8, 0x11, 0xba, 0x01, 0xfe, 0x36, 0xd6, 0x0a, 0x0c, 0x01, 0xea, 
  0x09, 0x04, 0x2f, 0xb3, 0xbc, 0x07, 0xe3, 0x2c, 0x3b, 0xdd, 0xe9, 0xbc, 
  0xc8, 0xe6, 0x05, 0x0e, 0xf9, 0xfd, 0x14, 0xdf, 0xd5, 0x04, 0x48, 0xf8, 
  0x1b, 0x4d, 0x05, 0xbd, 0x01, 0xfc, 0xd8, 0x38, 0x18, 0x10, 0xd4, 0xbf, 
  0xd7, 0x1d, 0x02, 0xda, 0x41, 0x2b, 0x29, 0xdb, 0xe9, 0xdd, 0xef, 0x06, 
  0x04, 0x1a, 0x10, 0x26, 0x48, 0xf8, 0x46, 0x42, 0x26, 0xfe, 0xec, 0x00, 
  0xec, 0x03, 0xde, 0x28, 0xb5, 0xd8, 0x17, 0x19, 0x13, 0x40, 0x0f, 0x2c, 
  0x97, 0xd2, 0x1c, 0x3e, 0x0f, 0xaf, 0x39, 0x02, 0xeb, 0xb2, 0xde, 0x39, 
  0x2c, 0x23, 0xf5, 0x08, 0x97, 0xcf, 0xdf, 0x1f, 0xfd, 0x20, 0x01, 0xc8, 
  0xf4, 0xca, 0xcf, 0x4c, 0xee, 0x17, 0xc1, 0xcf, 0x02, 0x11, 0x19, 0xde, 
  0x3d, 0xf4, 0x2f, 0xd9, 0xfe, 0xd2, 0xd7, 0x0c, 0xcb, 0xf8, 0x92, 0xbe, 
  0x2a, 0x1f, 0x30, 0xec, 0x05, 0x32, 0xde, 0xd8, 0x2e, 0xbf, 0xf4, 0x98, 
  0xea, 0xf6, 0xb9, 0xdc, 0x09, 0x31, 0x29, 0x0c, 0xda, 0x5d, 0xde, 0x15, 
  0x44, 0x0f, 0xe7, 0x96, 0xa7, 0xe8, 0x40, 0x1d, 0xf5, 0x31, 0xd3, 0xab, 
  0xc8, 0x56, 0xcf, 0x17, 0x44, 0x36, 0xa5, 0xdd, 0xd8, 0x0c, 0x12, 0x2d, 
  0x27, 0x1c, 0xea, 0x81, 0xcd, 0xd3, 0xe8, 0x29, 0x0b, 0xd0, 0xae, 0x02, 
  0x40, 0x28, 0x35, 0x24, 0x32, 0x2d, 0xea, 0x24, 0xd8, 0x1f, 0x1d, 0x38, 
  0xfa, 0xda, 0x2d, 0xfe, 0xe7, 0x68, 0x2e, 0x14, 0xb0, 0x0e, 0x1f, 0x51, 
  0x50, 0x10, 0x46, 0xcd, 0xa0, 0xdf, 0x15, 0x21, 0x41, 0x2c, 0x25, 0xd5, 
  0x99, 0xfc, 0xd7, 0x11, 0x2b, 0xc1, 0x02, 0xea, 0xe8, 0xfd, 0xdd, 0x1a, 
  0xfe, 0x49, 0xb5, 0xd4, 0xbf, 0xbc, 0x0e, 0xc5, 0x52, 0xba, 0x37, 0xc3, 
  0xea, 0xc5, 0x44, 0x08, 0xc1, 0x02, 0xcf, 0xea, 0x12, 0x24, 0x07, 0xe6, 
  0xff, 0xf8, 0xf5, 0xcf, 0xe3, 0x06, 0xba, 0x27, 0xbc, 0xdf, 0xf5, 0xb2, 
  0x3d, 0xcc, 0x17, 0xfe, 0x33, 0x2f, 0xeb, 0x1e, 0xea, 0x1f, 0xe6, 0xde, 
  0x0c, 0xef, 0xfb, 0x40, 0x2e, 0x01, 0x29, 0xc1, 0x01, 0x41, 0xdc, 0x5b, 
  0x0c, 0xed, 0xb9, 0x21, 0xda, 0xd8, 0x63, 0x51, 0x21, 0x2a, 0xdc, 0xef, 
  0xbd, 0x29, 0x0f, 0x22, 0x15, 0x4a, 0xe0, 0xed, 0xe4, 0x08, 0x3c, 0x24, 
  0x34, 0xfd, 0x09, 0x03, 0x0a, 0xb4, 0xe1, 0xf7, 0xd7, 0x52, 0xc3, 0x0d, 
  0x13, 0x3c, 0x6a, 0xc3, 0xd4, 0xf7, 0x41, 0x18, 0x01, 0xfb, 0xc9, 0x22, 
  0x3a, 0x62, 0x3a, 0x37, 0x04, 0x52, 0x1a, 0x3e, 0x19, 0x38, 0x00, 0xdb, 
  0x2b, 0x21, 0x00, 0xcb, 0x15, 0xfb, 0x08, 0xd6, 0xc3, 0x46, 0x4d, 0x06, 
  0x04, 0xcf, 0x09, 0xf7, 0x43, 0x2b, 0x5a, 0x27, 0xc0, 0xe5, 0xe3, 0xd6, 
  0x28, 0x2b, 0xf3, 0x45, 0x4b, 0x1f, 0xf2, 0x0a, 0x23, 0xe5, 0x1c, 0x43, 
  0x39, 0x32, 0xf7, 0xdf, 0xf7, 0x00, 0x22, 0xdc, 0x45, 0x0b, 0x16, 0xf8, 
  0x42, 0xa9, 0xf0, 0xe4, 0xf2, 0x21, 0xf7, 0xc7, 0xf3, 0xfa, 0xe8, 0xe7, 
  0x2c, 0xe4, 0xfb, 0x27, 0xe0, 0xb9, 0x14, 0x1d, 0xc8, 0x2d, 0x56, 0xa9, 
  0x36, 0x39, 0x1d, 0x3a, 0x07, 0x40, 0xf3, 0xbe, 0x44, 0xf5, 0x53, 0xfd, 
  0x0e, 0x0f, 0xf2, 0x0c, 0x32, 0xe8, 0xde, 0xf5, 0xd0, 0xef, 0x16, 0x8c, 
  0xbd, 0x15, 0x0e, 0xb1, 0xbe, 0x2f, 0xeb, 0xdc, 0xcc, 0xd6, 0xd4, 0x2e, 
  0xfc, 0x17, 0xfb, 0x47, 0x19, 0x25, 0x30, 0xd3, 0xf1, 0xfc, 0xce, 0x04, 
  0xc4, 0x18, 0x40, 0x19, 0xe7, 0xca, 0xd9, 0xd8, 0x10, 0x16, 0xec, 0x3b, 
  0x42, 0x57, 0x1c, 0x20, 0x2b, 0x3a, 0xf0, 0xf0, 0x13, 0x28, 0xdb, 0xb5, 
  0x05, 0xec, 0x63, 0xca, 0xbe, 0x0d, 0x5b, 0xaa, 0xce, 0xc0, 0x32, 0x1c, 
  0xd8, 0x1f, 0x29, 0x3b, 0x2c, 0x4b, 0x0b, 0x09, 0xd8, 0xdd, 0x4f, 0xa8, 
  0x03, 0xd2, 0xb0, 0x17, 0x06, 0x05, 0x40, 0x26, 0xd4, 0xdc, 0x3a, 0x1c, 
  0xb5, 0x3a, 0x41, 0xfd, 0xdf, 0xa6, 0x0b, 0xc0, 0x03, 0xe7, 0xc0, 0x4d, 
  0xfe, 0xf8, 0xfb, 0x19, 0xec, 0xdf, 0xd2, 0xcf, 0xdf, 0x15, 0x2b, 0x43, 
  0xbf, 0xab, 0xc7, 0x1b, 0xbd, 0xc7, 0x95, 0x1c, 0xeb, 0xe1, 0x9a, 0xf8, 
  0xbc, 0xcc, 0xc6, 0x17, 0x48, 0x1e, 0xe7, 0x3f, 0xc3, 0xe7, 0xec, 0xae, 
  0xaf, 0xf1, 0x28, 0x26, 0x2f, 0x3c, 0xaa, 0x25, 0x14, 0xf9, 0xdb, 0xcf, 
  0x3d, 0xb7, 0x0b, 0x98, 0xb5, 0x4d, 0x70, 0x42, 0xe5, 0xe2, 0x03, 0x33, 
  0xef, 0xd9, 0xf9, 0xcb, 0xec, 0x3c, 0x70, 0xe1, 0xf8, 0x47, 0x7f, 0xf0, 
  0xf7, 0xb3, 0x1b, 0xa6, 0xe3, 0x3b, 0x36, 0x15, 0xfa, 0x12, 0x48, 0xf7, 
  0xda, 0xf1, 0x46, 0x02, 0xb8, 0xf4, 0xfb, 0xe2, 0x42, 0x36, 0xee, 0x42, 
  0x0e, 0xe6, 0x36, 0xf8, 0x4e, 0x36, 0x0c, 0x02, 0x31, 0x01, 0x2e, 0x00, 
  0x2a, 0xde, 0xc3, 0x52, 0xde, 0x33, 0x26, 0xa3, 0x4f, 0x1a, 0xfd, 0x2f, 
  0xf6, 0x1e, 0xd0, 0xf8, 0x29, 0xd3, 0xb8, 0x11, 0xf2, 0x29, 0x26, 0xe5, 
  0x3c, 0x54, 0x36, 0xfb, 0x4b, 0xd5, 0x17, 0x10, 0x31, 0xfe, 0x17, 0x13, 
  0x18, 0x66, 0xf1, 0xee, 0x29, 0x29, 0x1d, 0xef, 0xea, 0x0e, 0xd2, 0x03, 
  0x0e, 0xed, 0xbe, 0x17, 0x0b, 0x0a, 0x0b, 0x12, 0x0c, 0x33, 0x21, 0xd3, 
  0xaa, 0x05, 0xd5, 0x05, 0x53, 0xff, 0xd6, 0xba, 0xef, 0x2a, 0xc9, 0xe1, 
  0x1a, 0xd9, 0xf3, 0x3c, 0xef, 0x1c, 0xac, 0xc2, 0x27, 0x2d, 0xf1, 0xa3, 
  0x40, 0xfa, 0xe9, 0xbc, 0xff, 0x8c, 0x05, 0x5a, 0xeb, 0x0f, 0xd1, 0xf7, 
  0xbc, 0xf1, 0xe4, 0x01, 0xfa, 0x08, 0xc8, 0xd8, 0x11, 0xf6, 0xe8, 0xdc, 
  0xcc, 0xc3, 0x26, 0x08, 0xf9, 0xff, 0xbf, 0x1c, 0xee, 0x06, 0xcc, 0x0c, 
  0x33, 0x23, 0xae, 0xf9, 0xcc, 0xd2, 0xe2, 0x0c, 0x20, 0x42, 0xcd, 0xca, 
  0x01, 0x59, 0x19, 0xeb, 0x39, 0x2d, 0xf4, 0x2f, 0x0f, 0x32, 0x64, 0x28, 
  0xc9, 0x0f, 0x3e, 0x15, 0xf5, 0x4a, 0x10, 0x17, 0xc7, 0x34, 0xf6, 0x28, 
  0x09, 0x51, 0x55, 0x43, 0x43, 0x42, 0x25, 0x67, 0x49, 0xc6, 0xcd, 0x57, 
  0xb7, 0xf7, 0xbb, 0x35, 0x16, 0x54, 0xd5, 0x0c, 0xe6, 0xde, 0xbc, 0xe1, 
  0xf4, 0x0b, 0xf2, 0xa3, 0xbe, 0xfd, 0x06, 0x5f, 0x4e, 0x1a, 0x9d, 0xd8, 
  0x07, 0x18, 0xf8, 0x56, 0x13, 0xe4, 0x05, 0xa4, 0x0b, 0x15, 0x14, 0x10, 
  0xfd, 0xf8, 0xb2, 0xd7, 0x09, 0x1b, 0x44, 0x00, 0xd1, 0xc9, 0x32, 0xe4, 
  0xf5, 0x15, 0x4d, 0xc4, 0xb3, 0xa9, 0x91, 0x8f, 0x96, 0x03, 0xe4, 0x21, 
  0x10, 0xdb, 0xcb, 0x03, 0x10, 0xf5, 0xef, 0xb5, 0xac, 0xe7, 0xdb, 0xc1, 
  0xc1, 0xc0, 0xf4, 0x9f, 0xf7, 0x52, 0x04, 0x07, 0x50, 0x90, 0x09, 0x1c, 
  0x90, 0x0b, 0x58, 0xee, 0xf2, 0xe5, 0xcf, 0xed, 0xea, 0xf6, 0xd5, 0x12, 
  0x43, 0x08, 0x92, 0x19, 0xfc, 0x0d, 0x1f, 0x23, 0x32, 0x0a, 0xf8, 0xe6, 
  0xd0, 0xd4, 0xbd, 0x0b, 0x35, 0x0c, 0xcb, 0xf1, 0x11, 0xf2, 0xf8, 0xff, 
  0xeb, 0xdd, 0x15, 0x3f, 0x12, 0xcf, 0x31, 0x34, 0xc0, 0x24, 0x34, 0x2b, 
  0x05, 0x75, 0xeb, 0x25, 0xc0, 0xc7, 0x0e, 0x06, 0x2d, 0xeb, 0x39, 0x2f, 
  0x0b, 0x4f, 0x2c, 0x0a, 0xfb, 0x6f, 0xcf, 0xff, 0xb3, 0xdf, 0xe5, 0xf7, 
  0x4f, 0x24, 0x50, 0x8a, 0xce, 0xdb, 0xe1, 0xfb, 0x0e, 0xe4, 0xf3, 0xf8, 
  0xdb, 0xb3, 0xc7, 0x22, 0xf5, 0xd7, 0x4a, 0xf0, 0xdd, 0xb8, 0x1b, 0xd3, 
  0x9e, 0xcf, 0xa7, 0xc0, 0xef, 0x30, 0x19, 0xf9, 0x12, 0xd3, 0x26, 0x0c, 
  0x46, 0x20, 0x12, 0xb6, 0xcb, 0xdf, 0xf7, 0xac, 0x37, 0x24, 0x02, 0xb7, 
  0xca, 0x46, 0x1f, 0x5c, 0x32, 0x2f, 0x9d, 0x9b, 0xea, 0xc8, 0x0a, 0xf5, 
  0x1a, 0xdb, 0x34, 0xc2, 0xb1, 0x2e, 0x91, 0x4e, 0xf4, 0x17, 0x81, 0x0a, 
  0x35, 0xc4, 0x4c, 0xff, 0xd3, 0xf9, 0xe3, 0xfc, 0xd1, 0xed, 0x16, 0x27, 
  0xe3, 0xf9, 0x15, 0xec, 0xfe, 0xde, 0x4c, 0x3f, 0x04, 0x1a, 0xff, 0xfc, 
  0x1f, 0x0e, 0xc0, 0x32, 0xb1, 0x58, 0x33, 0xf8, 0x05, 0x1d, 0x0a, 0xe1, 
  0x0d, 0x10, 0x1f, 0xff, 0x12, 0xcf, 0xfa, 0xf1, 0xd5, 0x3a, 0x54, 0x13, 
  0xc2, 0x33, 0xf2, 0xbb, 0xe3, 0xd6, 0xea, 0x1d, 0x3a, 0xde, 0xd3, 0xc8, 
  0xbe, 0xf5, 0xc8, 0x1b, 0x0c, 0xd4, 0x2c, 0x1b, 0x39, 0x24, 0xe6, 0x0e, 
  0x2f, 0x4d, 0x04, 0x3e, 0x14, 0x1d, 0xa4, 0x18, 0x0c, 0xcb, 0x4a, 0xe3, 
  0x3d, 0xe7, 0xdf, 0xf6, 0xa5, 0x16, 0xe8, 0xd5, 0xad, 0xfa, 0xde, 0xea, 
  0xee, 0x2a, 0x06, 0x03, 0x18, 0xc0, 0x3e, 0xc0, 0xde, 0xfe, 0x03, 0xfc, 
  0xd5, 0xc5, 0x18, 0x08, 0x36, 0xef, 0xd3, 0x05, 0x17, 0xf8, 0x26, 0xf8, 
  0x38, 0xe3, 0xe2, 0xe2, 0x2e, 0x14, 0x50, 0x12, 0xe7, 0x2b, 0x41, 0xda, 
  0x13, 0xfc, 0xfe, 0xfd, 0xdf, 0xf8, 0x4a, 0xd8, 0x1e, 0xfd, 0xf4, 0x2a, 
  0x27, 0xe8, 0x2c, 0xd8, 0x1c, 0xf8, 0x38, 0xf5, 0x1b, 0x2d, 0x10, 0x15, 
  0x1f, 0x29, 0x0a, 0xee, 0xe0, 0x16, 0xff, 0x25, 0x25, 0x52, 0x13, 0xbd, 
  0xec, 0x2f, 0xe2, 0xd0, 0xe1, 0xd3, 0x5a, 0xd7, 0x06, 0xde, 0xdb, 0x45, 
  0xf5, 0x04, 0x23, 0xaa, 0xe2, 0x05, 0xf2, 0xbd, 0x32, 0x06, 0x5e, 0xe4, 
  0x3f, 0x26, 0xf0, 0x3b, 0x0a, 0x05, 0x2f, 0xac, 0x30, 0x0b, 0xfb, 0xc7, 
  0x19, 0xd4, 0xfb, 0xdf, 0x1c, 0x25, 0x00, 0xc9, 0x05, 0xe8, 0x03, 0xf0, 
  0x29, 0x00, 0x26, 0x2b, 0xd2, 0xf1, 0x31, 0xd3, 0x22, 0x13, 0x0d, 0xf0, 
  0x6a, 0x34, 0xff, 0x3f, 0xc4, 0xd6, 0xdc, 0x0b, 0xc8, 0x3a, 0xe9, 0x2d, 
  0x01, 0xb0, 0x55, 0x36, 0x2f, 0x24, 0x3d, 0xd3, 0xd7, 0xe9, 0xd6, 0x2f, 
  0xb3, 0xd4, 0xba, 0xc9, 0xca, 0xf5, 0x49, 0x0f, 0x07, 0xc7, 0x17, 0xd7, 
  0xbc, 0xbf, 0x3c, 0xbd, 0xca, 0xd7, 0xe7, 0xca, 0xd2, 0xfd, 0xe9, 0xf5, 
  0xd5, 0xe7, 0x0e, 0xe6, 0x28, 0x2d, 0x38, 0x9b, 0x27, 0xb2, 0x1c, 0xcd, 
  0x40, 0x1e, 0x0e, 0x0a, 0xe0, 0x20, 0xfa, 0xbb, 0x44, 0x46, 0x44, 0xc4, 
  0x02, 0xd3, 0x49, 0xfa, 0x30, 0x2c, 0xd3, 0xf4, 0x1c, 0xea, 0x16, 0xe0, 
  0x02, 0x47, 0x51, 0xea, 0x02, 0x3e, 0x5a, 0xd2, 0xd7, 0xea, 0x23, 0x10, 
  0x2c, 0xf5, 0x18, 0xab, 0x41, 0x20, 0x22, 0xde, 0xfc, 0xcf, 0xe9, 0xff, 
  0x19, 0xe9, 0x31, 0x32, 0x12, 0x15, 0xff, 0xd5, 0xc1, 0xe6, 0x2c, 0xf7, 
  0x11, 0xef, 0x4a, 0xc7, 0xcd, 0xe3, 0x0c, 0x37, 0x47, 0x1c, 0xf5, 0xa6, 
  0xbc, 0x36, 0x15, 0x0f, 0x05, 0xea, 0x12, 0x8b, 0xf5, 0xd7, 0xf7, 0x20, 
  0x4c, 0x13, 0xfa, 0x9b, 0xf5, 0x1c, 0x5d, 0xa8, 0x00, 0x1a, 0x45, 0xf1, 
  0xd7, 0x19, 0x39, 0x2a, 0x3b, 0x21, 0x26, 0xd0, 0x03, 0xef, 0x2c, 0x03, 
  0x24, 0xc6, 0xf3, 0xa0, 0xbf, 0xc1, 0xf7, 0x46, 0x57, 0xdf, 0x23, 0xe9, 
  0xdf, 0xf9, 0xd5, 0xb4, 0x1e, 0x2f, 0xcc, 0xdd, 0xf5, 0xe5, 0x1b, 0x3d, 
  0x0d, 0x06, 0x01, 0xd9, 0xc5, 0xb0, 0xf5, 0x04, 0xdf, 0xca, 0xd4, 0xf0, 
  0x19, 0xe0, 0xfd, 0xdb, 0xf2, 0x26, 0x27, 0x09, 0x9e, 0x20, 0xfa, 0xd8, 
  0xbb, 0x08, 0xf3, 0xfc, 0x1e, 0xd2, 0x18, 0xd6, 0xe6, 0xeb, 0x25, 0x8e, 
  0x1b, 0xe6, 0x34, 0x81, 0x23, 0xd3, 0x2d, 0xcb, 0xfd, 0x10, 0x02, 0xf8, 
  0x00, 0xfd, 0x38, 0x3f, 0xf0, 0x42, 0x6c, 0x25, 0xfa, 0xed, 0xff, 0xff, 
  0x04, 0x00, 0x00, 0x00, 0x80, 0x01, 0x00, 0x00, 0x48, 0x79, 0x80, 0x3e, 
  0x87, 0xa7, 0x03, 0x3e, 0x3b, 0x88, 0xb3, 0x3e, 0x46, 0x57, 0xd7, 0x3d, 
  0xc0, 0x22, 0xf8, 0xbd, 0x7b, 0x1f, 0xd4, 0xbe, 0x6c, 0x41, 0xce, 0x3e, 
  0x0c, 0x38, 0x6e, 0xbe, 0x80, 0xcd, 0xc7, 0xbe, 0xbe, 0xc4, 0x0f, 0xbf, 
  0x1c, 0xa8, 0x75, 0x3e, 0x9b, 0x0b, 0xc8, 0xbe, 0xb4, 0xd5, 0xb6, 0xbe, 
  0x03, 0x3e, 0x57, 0x3c, 0x12, 0x17, 0xb7, 0x3d, 0x9c, 0x04, 0xce, 0x3e, 
  0x81, 0x59, 0xaa, 0x3e, 0x72, 0xe7, 0xa3, 0xbe, 0xe7, 0xd2, 0x1f, 0xbe, 
  0x71, 0x6b, 0xa9, 0x3e, 0xf4, 0xde, 0xb3, 0x3e, 0xbf, 0xdc, 0x9d, 0xbe, 
  0x40, 0x27, 0xb0, 0xbe, 0xc2, 0xa5, 0x11, 0x3d, 0xfc, 0xe7, 0xe9, 0xbe, 
  0x1f, 0x20, 0xeb, 0x3e, 0xc3, 0x1e, 0x03, 0xbf, 0xd3, 0xbe, 0x36, 0xbe, 
  0x41, 0x0d, 0x14, 0xbf, 0x8e, 0x16, 0x33, 0xbd, 0x7d, 0x23, 0x41, 0xbe, 
  0x07, 0x81, 0x84, 0xbe, 0x96, 0xbe, 0xcf, 0x3d, 0x11, 0x3a, 0xc9, 0x3e, 
  0x08, 0x58, 0xc5, 0x3e, 0x3b, 0xe2, 0xc0, 0xbe, 0xb3, 0x17, 0x45, 0xbe, 
  0xe1, 0xab, 0xb4, 0xbe, 0x8a, 0x1f, 0x3e, 0xbe, 0x3c, 0x69, 0xb9, 0x3e, 
  0x01, 0x6e, 0xe7, 0xbd, 0x96, 0x65, 0xff, 0x3e, 0x08, 0x3c, 0x2a, 0xbd, 
  0xf4, 0xcd, 0x96, 0x3e, 0x80, 0xba, 0x21, 0xbe, 0x53, 0x65, 0x2b, 0x3e, 
  0x1b, 0x7e, 0x8c, 0x3e, 0x25, 0x1f, 0xb3, 0xbe, 0x16, 0x8c, 0x88, 0xbe, 
  0x64, 0xed, 0xcd, 0x3e, 0x7b, 0x74, 0x9f, 0xbd, 0x79, 0x8f, 0xee, 0x3e, 
  0x9a, 0x4a, 0x67, 0x3e, 0x71, 0xde, 0x09, 0xbe, 0x6c, 0x6d, 0xee, 0x3e, 
  0x85, 0xa4, 0xc2, 0xbe, 0x0a, 0xf9, 0xb4, 0x3e, 0xb0, 0xb4, 0x02, 0x3e, 
  0xc2, 0x5d, 0x65, 0x3e, 0x7a, 0xb9, 0x9e, 0xbe, 0x31, 0x56, 0xbc, 0x3e, 
  0x89, 0xa4, 0xd9, 0xbe, 0x32, 0x5a, 0xe9, 0x3e, 0x87, 0xcd, 0x06, 0xbe, 
  0x18, 0x15, 0x61, 0x3c, 0xf4, 0xb6, 0x3e, 0x3d, 0x20, 0x8e, 0xb1, 0xbe, 
  0xff, 0x6a, 0xa6, 0x3e, 0x34, 0x8e, 0x44, 0x3d, 0x32, 0x4a, 0x05, 0x3e, 
  0x09, 0xa8, 0x80, 0x3c, 0x2c, 0x57, 0xc4, 0x3e, 0x67, 0x6d, 0xe0, 0x3e, 
  0x61, 0x42, 0x22, 0xbc, 0x4b, 0xe5, 0x90, 0xbe, 0x6e, 0x8f, 0xe9, 0x3e, 
  0x34, 0x9b, 0xf7, 0x3e, 0x72, 0x1f, 0x89, 0xbe, 0x64, 0xaf, 0x8c, 0xb8, 
  0x6a, 0x0a, 0xe4, 0xbe, 0x68, 0x0b, 0x89, 0xbe, 0x91, 0xe1, 0x3d, 0xbd, 
  0x99, 0x18, 0x99, 0x3e, 0x2b, 0x0a, 0xe3, 0x3d, 0x07, 0xbc, 0xf8, 0x3d, 
  0x5e, 0x01, 0x2c, 0x3e, 0x36, 0x6e, 0x3e, 0xbe, 0x58, 0x96, 0x21, 0x3e, 
  0xac, 0x0e, 0xce, 0xbe, 0x03, 0xaa, 0x4c, 0x3c, 0x18, 0x4e, 0xa3, 0x3e, 
  0x97, 0x91, 0xda, 0x3e, 0x95, 0x43, 0x03, 0xbe, 0x67, 0x56, 0x20, 0x3d, 
  0x83, 0x24, 0x7a, 0xbd, 0xdf, 0xb3, 0x1a, 0x3f, 0x86, 0xef, 0xff, 0xff, 
  0x04, 0x00, 0x00, 0x00, 0x90, 0x01, 0x00, 0x00, 0x5c, 0xfc, 0x2d, 0x3e, 
  0x02, 0x79, 0x9f, 0xbe, 0x3d, 0xf0, 0xc2, 0xbe, 0xf0, 0x39, 0x86, 0xbe, 
  0xed, 0x0e, 0xbf, 0xbe, 0xd4, 0x47, 0x9c, 0x37, 0x1e, 0x78, 0xb7, 0x3d, 
  0x03, 0x2a, 0x5e, 0x3d, 0xa6, 0x7b, 0x81, 0xbe, 0x80, 0xf6, 0x9c, 0xbc, 
  0xab, 0x37, 0x3f, 0x3e, 0x13, 0x60, 0x3b, 0x3d, 0x18, 0x46, 0xa5, 0x3e, 
  0x0d, 0xb0, 0xd2, 0x3e, 0x64, 0xb5, 0x19, 0x3e, 0xb1, 0xf5, 0xeb, 0x3d, 
  0x61, 0xd7, 0xa1, 0x3e, 0xad, 0x1f, 0xb5, 0x3e, 0x6a, 0x07, 0xc8, 0x3e, 
  0xd4, 0x06, 0x5d, 0x3e, 0x8f, 0xcf, 0x8f, 0x3d, 0xe4, 0xda, 0xe7, 0x3e, 
  0x9a, 0x2d, 0xc5, 0x3e, 0x39, 0x2c, 0x2c, 0xbe, 0x55, 0x75, 0xca, 0xbd, 
  0xf9, 0x5c, 0x98, 0xbe, 0x90, 0x0a, 0xdd, 0xbd, 0xdd, 0x51, 0x53, 0x3e, 
  0x3e, 0x5a, 0x97, 0xbe, 0x0e, 0xb6, 0x36, 0xbb, 0xe6, 0xe3, 0xbb, 0x3e, 
  0x77, 0x24, 0x48, 0x3d, 0xcf, 0x43, 0xb0, 0xbd, 0x00, 0x5d, 0x98, 0xbc, 
  0x69, 0x8e, 0xef, 0xbd, 0xde, 0x0d, 0x9e, 0xbe, 0x0f, 0xd3, 0x81, 0x3d, 
  0x15, 0x69, 0x7f, 0xbe, 0x8b, 0x4f, 0x42, 0xbe, 0xfa, 0xfe, 0x96, 0xbe, 
  0x06, 0x69, 0x4e, 0xbe, 0x44, 0xfc, 0xa1, 0x3d, 0x2e, 0x9f, 0x95, 0x3e, 
  0xba, 0x57, 0x89, 0xbd, 0x36, 0x38, 0xaf, 0x3e, 0x1a, 0x93, 0x77, 0x3e, 
  0x18, 0x86, 0xa9, 0xbd, 0x5f, 0x07, 0x02, 0x3e, 0x52, 0x69, 0x1f, 0xbe, 
  0x0d, 0x15, 0x8c, 0x3e, 0xdd, 0x57, 0x11, 0x3e, 0x98, 0xb4, 0x48, 0x3e, 
  0x05, 0x38, 0x64, 0xbe, 0xae, 0xff, 0x7a, 0xbe, 0xaa, 0x9b, 0xd1, 0xbd, 
  0x88, 0xe7, 0x1c, 0x3e, 0x4d, 0xf0, 0xd3, 0x3c, 0x3b, 0xc6, 0xcf, 0xbe, 
  0xab, 0x2c, 0xb3, 0xbe, 0x8f, 0x59, 0x51, 0xbe, 0x08, 0xde, 0xc3, 0x3e, 
  0xb2, 0x5a, 0x68, 0xbe, 0xbe, 0x3f, 0x8e, 0x3d, 0x5e, 0xdc, 0x70, 0x3e, 
  0x5b, 0xc6, 0xf0, 0x3d, 0x54, 0x5a, 0x47, 0x3d, 0x45, 0x99, 0x8e, 0xbc, 
  0x1a, 0xf6, 0xc2, 0x3e, 0x5e, 0xcf, 0xa4, 0x3e, 0xe7, 0x20, 0x8c, 0x3e, 
  0x2f, 0xe7, 0xab, 0xbe, 0xe4, 0xdf, 0x9d, 0xbe, 0x84, 0xa8, 0x94, 0xbd, 
  0x44, 0xbb, 0x96, 0xbe, 0x78, 0x3b, 0x68, 0xbe, 0xbd, 0xc5, 0x2c, 0xbe, 
  0x57, 0x5b, 0x16, 0xbd, 0x9a, 0x75, 0x36, 0x3e, 0xde, 0x2a, 0xa1, 0x3e, 
  0x0e, 0x72, 0xaf, 0x3e, 0xbd, 0xc4, 0xee, 0x3c, 0x49, 0xd0, 0x23, 0xbb, 
  0x59, 0xe5, 0xef, 0x3c, 0x40, 0xce, 0xb1, 0x3d, 0x30, 0x79, 0x8e, 0xbe, 
  0xed, 0x11, 0xb0, 0xbe, 0x48, 0x7a, 0x39, 0x3e, 0xb7, 0x9c, 0x35, 0xbc, 
  0x01, 0xf0, 0xfd, 0x3c, 0x91, 0xa1, 0xf5, 0xbd, 0xa6, 0xc5, 0xfa, 0x3c, 
  0xf4, 0xd7, 0xb5, 0xbe, 0x3e, 0x3d, 0x5a, 0xbe, 0xbf, 0x29, 0x32, 0x3d, 
  0x57, 0x39, 0xf4, 0x3d, 0xb0, 0x8d, 0xad, 0xbe, 0xa7, 0x0c, 0x35, 0x3e, 
  0x35, 0x88, 0x85, 0xbe, 0x94, 0xaf, 0xc1, 0xbc, 0x06, 0x35, 0xb7, 0xbe, 
  0x22, 0xf1, 0xff, 0xff, 0x04, 0x00, 0x00, 0x00, 0x80, 0x0c, 0x00, 0x00, 
  0x14, 0x85, 0x2b, 0x3e, 0x25, 0x67, 0x0b, 0x3e, 0xf6, 0xe9, 0xe7, 0x3d, 
  0x40, 0x7c, 0x3a, 0xbe, 0xf9, 0xc7, 0x70, 0x3d, 0xc6, 0x32, 0x2f, 0x3d, 
  0xbe, 0x7d, 0xea, 0x3d, 0xda, 0xa8, 0x0a, 0xbd, 0xb2, 0x07, 0x2b, 0xbe, 
  0xff, 0xb4, 0x42, 0xbe, 0xaf, 0x4d, 0x83, 0xbe, 0x40, 0x3a, 0x06, 0x3c, 
  0xb8, 0xc6, 0x43, 0xbe, 0x78, 0x27, 0x95, 0xbc, 0x54, 0x26, 0x12, 0xbe, 
  0xfb, 0xda, 0x0e, 0x3e, 0xfb, 0xd2, 0x89, 0x3e, 0xfe, 0xee, 0x84, 0xbe, 
  0x78, 0x97, 0x44, 0x3b, 0x9f, 0x73, 0xdc, 0xbd, 0xd7, 0x10, 0x9d, 0xbd, 
  0x03, 0xb4, 0xd4, 0x3d, 0xf5, 0x78, 0xf0, 0xbd, 0x0e, 0x9c, 0x57, 0x3e, 
  0x89, 0x5a, 0x18, 0x3e, 0x4b, 0xc7, 0x46, 0x3c, 0xa8, 0x0e, 0x58, 0x3d, 
  0x4c, 0xb4, 0x9b, 0xbd, 0x8a, 0xf5, 0x2f, 0x3d, 0x74, 0x91, 0x88, 0x3d, 
  0xd0, 0x7e, 0xaa, 0xbc, 0xa1, 0x3f, 0x7a, 0x3e, 0xf2, 0x91, 0x4b, 0xbe, 
  0x12, 0x68, 0x41, 0xbc, 0x1a, 0xd0, 0x80, 0x3e, 0x29, 0x92, 0x33, 0x3e, 
  0xcf, 0x14, 0x8a, 0x3e, 0x92, 0x16, 0xbc, 0x3d, 0xba, 0xd3, 0xd8, 0xbc, 
  0x55, 0xa9, 0x67, 0xbe, 0x19, 0x4d, 0xe9, 0xbd, 0xe2, 0x99, 0x32, 0x3e, 
  0xf1, 0x34, 0x38, 0x3d, 0x30, 0x70, 0x13, 0x3e, 0x3d, 0x51, 0xb8, 0xbd, 
  0x92, 0x14, 0x3d, 0xbd, 0xa9, 0x8f, 0x5d, 0x3d, 0x31, 0x5d, 0x20, 0x3e, 
  0xc4, 0x06, 0x1e, 0xbc, 0x0b, 0xc1, 0x35, 0xbe, 0x88, 0x84, 0xb7, 0x3c, 
  0x04, 0xcf, 0x2b, 0x3e, 0xed, 0x9f, 0xf2, 0x3c, 0x80, 0x6b, 0x26, 0xbe, 
  0x43, 0x02, 0xc9, 0x3d, 0x91, 0x9c, 0x64, 0xbd, 0x19, 0xb5, 0x48, 0xbd, 
  0xd8, 0x2e, 0x81, 0x3e, 0x85, 0x5d, 0xa5, 0xbd, 0x58, 0x19, 0x5f, 0xbd, 
  0xc9, 0x1b, 0xd0, 0xbd, 0x4a, 0x82, 0x4d, 0x3e, 0x86, 0x92, 0x01, 0x3e, 
  0x73, 0xa6, 0xd5, 0xba, 0x77, 0x13, 0xc5, 0xbd, 0x64, 0xe4, 0x55, 0x3d, 
  0xd2, 0xcc, 0x27, 0xbe, 0x71, 0xc4, 0x02, 0x3d, 0x7a, 0xb1, 0x64, 0xbd, 
  0x8d, 0x40, 0x43, 0xbc, 0xb3, 0x95, 0x68, 0xbd, 0x90, 0x7a, 0x16, 0xbd, 
  0x98, 0xd8, 0x1a, 0x3d, 0xca, 0x32, 0x46, 0x3e, 0x5f, 0x0d, 0xa8, 0x3d, 
  0x73, 0x58, 0x1e, 0xbe, 0xb6, 0xce, 0x65, 0xbe, 0x32, 0xab, 0x9d, 0xbd, 
  0xbf, 0xf6, 0x2b, 0xbb, 0x48, 0xc0, 0x41, 0x3e, 0xf1, 0xe2, 0xa1, 0xbc, 
  0xa0, 0x80, 0x33, 0xbe, 0xb1, 0x3b, 0xd8, 0xbc, 0x1a, 0x85, 0xd1, 0x3d, 
  0x1a, 0x15, 0x63, 0xbe, 0x18, 0xe2, 0x5e, 0x3d, 0xe9, 0xc7, 0x00, 0x3e, 
  0xa0, 0x44, 0xa2, 0x3d, 0x59, 0xbb, 0x84, 0x3d, 0xd2, 0xba, 0x71, 0xbd, 
  0x2b, 0x38, 0x53, 0xbe, 0x33, 0x26, 0x08, 0x3e, 0x8f, 0x0c, 0x8b, 0xbe, 
  0xbb, 0x2a, 0x23, 0xbe, 0xba, 0x8c, 0xa4, 0xbd, 0x79, 0x8c, 0xbd, 0x3d, 
  0x6d, 0x22, 0xaf, 0xbc, 0x0e, 0x9a, 0x8c, 0x3e, 0x87, 0x6c, 0x11, 0xbe, 
  0xc3, 0x7c, 0x26, 0xbe, 0x23, 0x42, 0x37, 0x3e, 0xdc, 0x88, 0xa9, 0xbe, 
  0xf0, 0x22, 0x68, 0xbe, 0xc9, 0x35, 0x02, 0x3e, 0x97, 0xa7, 0x0f, 0xbe, 
  0x20, 0x17, 0x45, 0x3e, 0x15, 0xb6, 0x96, 0xbd, 0xd4, 0x3e, 0x15, 0xbe, 
  0x9d, 0x7f, 0xec, 0xbc, 0x8b, 0xf8, 0xd4, 0x3b, 0x15, 0x94, 0xac, 0x3c, 
  0x96, 0x8a, 0x2c, 0x3c, 0x43, 0xbf, 0xb0, 0xbd, 0x4b, 0x9b, 0x88, 0xbd, 
  0x45, 0x82, 0x41, 0xbe, 0xb0, 0xac, 0xe1, 0x3d, 0x77, 0x31, 0x4f, 0xbd, 
  0xe5, 0x21, 0x94, 0x3e, 0xff, 0xf9, 0x17, 0xbd, 0xe2, 0xfe, 0x0d, 0x3d, 
  0xc7, 0x4e, 0xb9, 0x3b, 0xd0, 0xe1, 0xa2, 0xbd, 0x4e, 0xef, 0x35, 0xbe, 
  0xbc, 0x09, 0xae, 0xbc, 0x5a, 0x59, 0xf8, 0xbd, 0x23, 0x59, 0xd5, 0x3d, 
  0xa4, 0xf4, 0x0c, 0xbe, 0xb8, 0xb2, 0xf2, 0x3d, 0x45, 0xc4, 0xe2, 0xbd, 
  0x48, 0x1f, 0x19, 0xbe, 0x5c, 0xcc, 0x82, 0xbe, 0x2c, 0x0d, 0x24, 0x3e, 
  0x7f, 0x96, 0x89, 0xbe, 0xfa, 0x8b, 0x9e, 0xbe, 0x70, 0xb1, 0x86, 0xbd, 
  0xd8, 0xd3, 0x1a, 0xbd, 0xb7, 0x1f, 0x59, 0x3d, 0xea, 0x8a, 0xd2, 0x3d, 
  0x52, 0x87, 0x81, 0xbe, 0x6c, 0x4f, 0x8d, 0x3d, 0x6c, 0xd1, 0xce, 0xbe, 
  0x1b, 0xf1, 0x31, 0x3e, 0x95, 0x94, 0xf6, 0x3c, 0x6e, 0xad, 0xab, 0xbd, 
  0xc8, 0x2d, 0x26, 0x3d, 0x03, 0x3c, 0xc4, 0x3d, 0x5d, 0x97, 0x6b, 0x3e, 
  0xb1, 0x0a, 0xb9, 0xbd, 0x76, 0xf0, 0x12, 0xbd, 0x4e, 0x71, 0xa6, 0xbd, 
  0x8a, 0x39, 0x32, 0x3e, 0x51, 0x45, 0xae, 0x3d, 0xf3, 0x04, 0x2c, 0xbe, 
  0xc3, 0x15, 0x1a, 0x3e, 0xd8, 0x90, 0x35, 0xbd, 0x7e, 0xc5, 0x57, 0x3e, 
  0x80, 0xa9, 0x23, 0x3e, 0x12, 0x10, 0x69, 0x3e, 0x7e, 0x28, 0xba, 0x3c, 
  0x12, 0x67, 0x1c, 0xbe, 0x37, 0x10, 0xb4, 0x3d, 0x57, 0xdb, 0x06, 0xbe, 
  0x21, 0xd6, 0x60, 0x3e, 0xe2, 0x14, 0x89, 0xbd, 0xb5, 0xba, 0x52, 0xbb, 
  0xff, 0x69, 0x77, 0x3e, 0xaa, 0x64, 0xf4, 0xbd, 0x0c, 0xcc, 0x80, 0x3e, 
  0xff, 0x6d, 0xe0, 0x3d, 0x98, 0xb6, 0xc2, 0x3c, 0x85, 0x12, 0x0d, 0xbe, 
  0x87, 0xb4, 0xe2, 0xbd, 0x88, 0x1c, 0xe4, 0xbc, 0x69, 0x48, 0x65, 0x3e, 
  0x74, 0x03, 0x8b, 0x3d, 0x11, 0xa9, 0x35, 0xbe, 0xe5, 0xdc, 0xdd, 0xbc, 
  0xcb, 0x5f, 0x97, 0x3b, 0x8d, 0x3d, 0x05, 0x3e, 0x9b, 0xa9, 0xcd, 0x3d, 
  0xca, 0xb3, 0xd5, 0x3d, 0xb1, 0x9a, 0x45, 0xbe, 0x9c, 0xdf, 0xa3, 0x3b, 
  0x52, 0x10, 0x81, 0xbd, 0xa1, 0x95, 0x7c, 0xbe, 0x66, 0x20, 0x3d, 0xbe, 
  0x8e, 0x01, 0x2b, 0xbe, 0x61, 0xc1, 0xaf, 0xbc, 0xfc, 0xe7, 0x0a, 0x3e, 
  0x52, 0x56, 0x4c, 0x3e, 0x0b, 0x04, 0x69, 0xbe, 0x67, 0x77, 0x34, 0xbe, 
  0x18, 0x4b, 0x13, 0x3d, 0xed, 0x12, 0xcd, 0xbd, 0x20, 0x14, 0x23, 0x3d, 
  0xdf, 0x5a, 0x2f, 0xbe, 0x76, 0x7c, 0x16, 0xbe, 0xb4, 0x7e, 0x8c, 0xbd, 
  0xa7, 0x12, 0x10, 0xbe, 0x31, 0x35, 0x4f, 0x3e, 0x48, 0x98, 0x0a, 0x3e, 
  0x15, 0x04, 0x04, 0x3e, 0x3b, 0x2d, 0x0c, 0xbe, 0x9b, 0x4d, 0x67, 0x3e, 
  0x79, 0xe4, 0x24, 0x3e, 0x49, 0x3c, 0x2b, 0x3e, 0x61, 0xf2, 0x96, 0x3d, 
  0xa9, 0xf2, 0xad, 0xbd, 0x2f, 0x91, 0x94, 0xbd, 0x36, 0xf8, 0x9e, 0x3d, 
  0x19, 0x1e, 0x3d, 0x3e, 0xfd, 0x17, 0xad, 0xbc, 0x13, 0x69, 0x61, 0x3e, 
  0x5c, 0xd8, 0x07, 0x3e, 0xf3, 0x2e, 0x14, 0xbe, 0x7a, 0xfc, 0x10, 0xbe, 
  0xc3, 0x70, 0x5c, 0xbe, 0xc7, 0x0a, 0x7a, 0xbd, 0x86, 0x6d, 0x19, 0x3e, 
  0xd7, 0xfd, 0xf6, 0x3c, 0x7f, 0x3a, 0x10, 0x3e, 0x31, 0x3d, 0x3e, 0xbd, 
  0x0a, 0xb3, 0x46, 0x3e, 0xe8, 0x54, 0x98, 0xbc, 0x72, 0xe5, 0x2a, 0x3e, 
  0x92, 0xa0, 0x7c, 0x3e, 0x8f, 0x2e, 0x19, 0x3e, 0x7d, 0xbe, 0x5b, 0x3d, 
  0x1e, 0x32, 0xcd, 0x3c, 0x75, 0x48, 0x2b, 0xbe, 0x9c, 0x60, 0x40, 0x3e, 
  0x50, 0xdb, 0xb2, 0xbd, 0x89, 0x8a, 0x86, 0x3e, 0x70, 0xf1, 0x0c, 0x3e, 
  0x3e, 0xf3, 0xc3, 0x3d, 0x55, 0x48, 0x08, 0xbd, 0xb6, 0xd8, 0x6b, 0xbe, 
  0xf9, 0x62, 0x32, 0x3e, 0x9b, 0x8d, 0x31, 0x3c, 0xe4, 0xd5, 0xb9, 0x3c, 
  0x0d, 0x6c, 0x5e, 0x3e, 0x6c, 0x33, 0xdf, 0x3d, 0x14, 0x13, 0x29, 0x3e, 
  0xcf, 0xb8, 0x21, 0xbe, 0xd6, 0x44, 0xb9, 0xbd, 0x72, 0xdd, 0x09, 0xbe, 
  0x99, 0x2c, 0x86, 0xbc, 0xb8, 0x21, 0x35, 0x3e, 0x59, 0xc4, 0x08, 0x3e, 
  0xc4, 0x5b, 0x3e, 0xbe, 0xc5, 0xc3, 0x9b, 0xbd, 0x75, 0x17, 0x82, 0x3e, 
  0x7b, 0xb2, 0x8b, 0xbd, 0x60, 0x4a, 0xdb, 0x3d, 0xd6, 0x01, 0x70, 0xbd, 
  0xfd, 0x8a, 0x23, 0x3c, 0x3d, 0xcf, 0x3d, 0xbd, 0xe7, 0xbf, 0x1c, 0x3e, 
  0xf8, 0x26, 0x3b, 0x3e, 0x2d, 0x22, 0x57, 0x3e, 0x48, 0x6c, 0x6a, 0x3e, 
  0x45, 0xdf, 0x8c, 0xbd, 0xbc, 0xf6, 0xde, 0x3d, 0xd8, 0xda, 0x70, 0x3e, 
  0x01, 0x90, 0xc7, 0x3d, 0xc2, 0x1e, 0x51, 0x3d, 0xe6, 0xae, 0x03, 0x3e, 
  0xa4, 0xd1, 0x1a, 0x3e, 0x83, 0xca, 0x06, 0xbe, 0x9b, 0x4c, 0x26, 0x3d, 
  0x84, 0xa9, 0x62, 0x3e, 0x27, 0xc6, 0x00, 0xbe, 0x5b, 0x60, 0x5f, 0x3e, 
  0x71, 0x63, 0xa8, 0x3d, 0x86, 0xf9, 0x9b, 0xbd, 0x9b, 0x91, 0x98, 0xbd, 
  0xde, 0x93, 0x2b, 0xbb, 0x85, 0xe6, 0x63, 0x3e, 0xd6, 0x6e, 0x77, 0x3d, 
  0xec, 0xfd, 0x6e, 0x3e, 0x22, 0x1c, 0x23, 0xbd, 0x63, 0x2b, 0x78, 0xbe, 
  0x15, 0x20, 0x5b, 0x3e, 0x00, 0x01, 0x06, 0xbd, 0x95, 0xc3, 0xfb, 0xbd, 
  0x1e, 0x12, 0x56, 0x3e, 0x02, 0x24, 0x5d, 0xbe, 0xc7, 0xb0, 0xdc, 0xbd, 
  0x53, 0xb9, 0x3b, 0x3e, 0xfc, 0x7b, 0xc4, 0x3d, 0x4e, 0xd4, 0x0c, 0xbe, 
  0xce, 0xe2, 0x70, 0xbd, 0x2c, 0x8b, 0x0e, 0x3d, 0x2a, 0x55, 0xd1, 0x3d, 
  0xc2, 0xeb, 0xa3, 0xbd, 0x56, 0xa6, 0xf2, 0xbd, 0xcf, 0xa4, 0xc1, 0xbd, 
  0x69, 0x8c, 0x72, 0x3e, 0x2a, 0xb3, 0xc7, 0xbd, 0x78, 0xe5, 0x15, 0xbe, 
  0x8e, 0xd2, 0x5b, 0x3d, 0xf1, 0x75, 0xdd, 0x3d, 0x7b, 0x18, 0x63, 0xbd, 
  0x02, 0xa9, 0x49, 0x3e, 0x61, 0xc6, 0x91, 0x3e, 0x1c, 0x72, 0x14, 0xbe, 
  0x98, 0x84, 0xf8, 0x3d, 0xb4, 0xc6, 0x2d, 0x3d, 0x16, 0x46, 0x36, 0x3d, 
  0x40, 0x12, 0xc8, 0x3d, 0x15, 0x54, 0x2a, 0xbe, 0xfc, 0x4e, 0x1a, 0x3e, 
  0x85, 0x7a, 0xd8, 0xbd, 0x32, 0xb4, 0x67, 0xbd, 0xea, 0xc6, 0x76, 0xbc, 
  0xae, 0x36, 0x26, 0x3e, 0x3e, 0x63, 0x0f, 0xbd, 0x23, 0xff, 0x34, 0xbe, 
  0xbd, 0x9b, 0x87, 0x3d, 0x34, 0x0f, 0x1b, 0xbe, 0x61, 0x07, 0x6a, 0xbe, 
  0x46, 0xb8, 0xc1, 0xbd, 0x5f, 0xed, 0x47, 0xbd, 0x46, 0x51, 0xea, 0x3d, 
  0xf5, 0xba, 0x3f, 0xbe, 0xa8, 0x56, 0x47, 0x3e, 0x2a, 0x2a, 0x35, 0x3e, 
  0xd3, 0x8b, 0x24, 0xbc, 0x48, 0xff, 0x09, 0xbb, 0xd8, 0x8e, 0x71, 0x3e, 
  0x27, 0xde, 0xb0, 0x3d, 0x35, 0x2b, 0x79, 0xbd, 0xda, 0xe7, 0x17, 0xbd, 
  0xa3, 0x32, 0x01, 0x3d, 0xa3, 0x14, 0xbc, 0x3d, 0xb2, 0x07, 0x52, 0xbe, 
  0xe3, 0x22, 0x39, 0x3e, 0x14, 0x9c, 0xe7, 0xbd, 0x69, 0xaa, 0x18, 0x3d, 
  0x08, 0xdd, 0xab, 0xbd, 0xd0, 0xdf, 0x15, 0xbe, 0xfc, 0xc8, 0x57, 0xbe, 
  0x2d, 0xb2, 0xeb, 0x3c, 0xfb, 0xe5, 0x13, 0x3e, 0x48, 0xbb, 0xa0, 0xbd, 
  0x74, 0xdf, 0x09, 0x3e, 0x8c, 0x16, 0x1d, 0xbd, 0x89, 0xbd, 0x10, 0xbe, 
  0x3f, 0x2d, 0x20, 0x3e, 0xfd, 0x4f, 0x8a, 0x3e, 0x12, 0xb2, 0xc0, 0xbb, 
  0x89, 0xc1, 0x79, 0x3e, 0x54, 0x41, 0x86, 0xbd, 0x82, 0xfa, 0xf5, 0x3d, 
  0x04, 0x44, 0xba, 0x3d, 0xba, 0xe7, 0x8d, 0x3d, 0x3d, 0x7e, 0xed, 0x3c, 
  0x65, 0xb7, 0x07, 0xbe, 0x3e, 0x06, 0xd7, 0xbc, 0x57, 0x70, 0x31, 0xbe, 
  0xba, 0x3b, 0xf0, 0x3d, 0xb0, 0x59, 0xc2, 0x3d, 0x62, 0x0c, 0x1c, 0x3e, 
  0xff, 0x3d, 0x3c, 0xbe, 0xc3, 0xf0, 0xc3, 0x3d, 0xb5, 0x71, 0x1c, 0xbe, 
  0x25, 0x3a, 0x39, 0x3e, 0x1c, 0xa4, 0x1e, 0xbd, 0x5f, 0x07, 0x69, 0xbe, 
  0xc2, 0xe9, 0x69, 0x3e, 0x12, 0xe9, 0xbb, 0xbd, 0xf9, 0x77, 0x88, 0xbd, 
  0xa1, 0x80, 0xba, 0x3d, 0x9a, 0x5a, 0x24, 0xbe, 0x14, 0x2d, 0xf1, 0x3d, 
  0x98, 0xf3, 0x48, 0x3e, 0x2c, 0x78, 0x84, 0xbd, 0xe6, 0xe5, 0x19, 0xbe, 
  0xd7, 0x9e, 0x55, 0xbd, 0xbb, 0x00, 0x23, 0x3d, 0x82, 0x51, 0xf7, 0x3d, 
  0x4a, 0x7f, 0xe6, 0xbc, 0x33, 0x0c, 0x1a, 0xbe, 0xa0, 0xb7, 0x31, 0x3e, 
  0xf7, 0x5a, 0x0e, 0x3d, 0xb9, 0xa8, 0x7b, 0x3d, 0xb3, 0x28, 0x6a, 0xbe, 
  0x2b, 0xd9, 0xdf, 0x3d, 0xd3, 0x43, 0x86, 0x3e, 0xb2, 0xbb, 0x14, 0x3e, 
  0x89, 0xd2, 0xd7, 0xbd, 0x19, 0xce, 0xcc, 0x3d, 0x2d, 0x93, 0x9d, 0xbd, 
  0xd7, 0x26, 0xe7, 0xbd, 0x48, 0x0e, 0xcd, 0xbc, 0x0d, 0x37, 0x0c, 0x3e, 
  0xac, 0x9e, 0x40, 0xbe, 0x76, 0xc3, 0xda, 0x3d, 0xc8, 0x45, 0x72, 0x3e, 
  0xd4, 0xf8, 0x75, 0x3e, 0x04, 0x9e, 0x1f, 0xbe, 0x0e, 0xf2, 0x12, 0x3e, 
  0x71, 0x83, 0x0f, 0xbc, 0x6b, 0x26, 0x0c, 0x3d, 0xfc, 0x7b, 0xb3, 0xbd, 
  0x17, 0x30, 0x5a, 0xbc, 0x49, 0xad, 0x8d, 0x3e, 0xf8, 0xa3, 0x34, 0x3e, 
  0x2a, 0xf7, 0xbb, 0xbd, 0xf4, 0xa9, 0x56, 0x3b, 0x09, 0xea, 0x1b, 0x3e, 
  0xf3, 0x4c, 0xd5, 0x3d, 0xe5, 0x12, 0x13, 0x3e, 0x7b, 0x77, 0x21, 0xbe, 
  0x04, 0xc2, 0x26, 0x3e, 0xa8, 0x26, 0x7c, 0xbe, 0xe0, 0xcf, 0xd5, 0xbc, 
  0x88, 0xb9, 0x9a, 0x3d, 0xcf, 0x4a, 0x60, 0xbd, 0xb3, 0xc7, 0x45, 0xbd, 
  0x8d, 0x83, 0x56, 0xbc, 0x75, 0x0d, 0x61, 0x3e, 0xa2, 0xf5, 0x55, 0xbc, 
  0xe1, 0x98, 0x4f, 0xbe, 0x8f, 0x04, 0x1f, 0x3d, 0x21, 0x54, 0xd0, 0xbd, 
  0x98, 0xb5, 0x80, 0x3e, 0x98, 0x8c, 0xf4, 0x3d, 0x52, 0x94, 0x5d, 0xbd, 
  0x8a, 0xca, 0xb7, 0x3c, 0xec, 0x6e, 0x27, 0xbc, 0x67, 0x64, 0x3d, 0x3e, 
  0x17, 0x5b, 0x1d, 0x3e, 0x76, 0x14, 0x81, 0xbe, 0x41, 0x6b, 0x35, 0x3e, 
  0x17, 0xf3, 0x86, 0xbe, 0x64, 0xea, 0x11, 0xbe, 0x9d, 0x76, 0x0c, 0xbd, 
